{
  "version": "1.0",
  "truncation": null,
  "padding": null,
  "added_tokens": [
    {
      "id": 0,
      "content": "[PAD]",
      "single_word": false,
      "lstrip": false,
      "rstrip": false,
      "normalized": false,
      "special": true
    },
    {
      "id": 101,
      "content": "[UNK]",
      "single_word": false,
      "lstrip": false,
      "rstrip": false,
      "normalized": false,
      "special": true
    },
    {
      "id": 102,
      "content": "[CLS]",
      "single_word": false,
      "lstrip": false,
      "rstrip": false,
      "normalized": false,
      "special": true
    },
    {
      "id": 103,
      "content": "[SEP]",
      "single_word": false,
      "lstrip": false,
      "rstrip": false,
      "normalized": false,
      "special": true
    },
    {
      "id": 104,
      "content": "[MASK]",
      "single_word": false,
      "lstrip": false,
      "rstrip": false,
      "normalized": false,
      "special": true
    }
  ],
  "normalizer": {
    "type": "BertNormalizer",
    "clean_text": true,
    "handle_chinese_chars": true,
    "strip_accents": null,
    "lowercase": true
  },
  "pre_tokenizer": {
    "type": "BertPreTokenizer"
  },
  "post_processor": {
    "type": "TemplateProcessing",
    "single": [
      {
        "SpecialToken": {
          "id": "[CLS]",
          "type_id": 0
        }
      },
      {
        "Sequence": {
          "id": "A",
          "type_id": 0
        }
      },
      {
        "SpecialToken": {
          "id": "[SEP]",
          "type_id": 0
        }
      }
    ],
    "pair": [
      {
        "SpecialToken": {
          "id": "[CLS]",
          "type_id": 0
        }
      },
      {
        "Sequence": {
          "id": "A",
          "type_id": 0
        }
      },
      {
        "SpecialToken": {
          "id": "[SEP]",
          "type_id": 0
        }
      },
      {
        "Sequence": {
          "id": "B",
          "type_id": 1
        }
      },
      {
        "SpecialToken": {
          "id": "[SEP]",
          "type_id": 1
        }
      }
    ],
    "special_tokens": {
      "[CLS]": {
        "id": "[CLS]",
        "ids": [
          102
        ],
        "tokens": [
          "[CLS]"
        ]
      },
      "[SEP]": {
        "id": "[SEP]",
        "ids": [
          103
        ],
        "tokens": [
          "[SEP]"
        ]
      }
    }
  },
  "decoder": {
    "type": "WordPiece",
    "prefix": "##",
    "cleanup": true
  },
  "model": {
    "type": "WordPiece",
    "unk_token": "[UNK]",
    "continuing_subword_prefix": "##",
    "max_input_chars_per_word": 100,
    "vocab": {
      "[PAD]": 0,
      "[unused0]": 1,
      "[unused1]": 2,
      "[unused2]": 3,
      "[unused3]": 4,
      "[unused4]": 5,
      "[unused5]": 6,
      "[unused6]": 7,
      "[unused7]": 8,
      "[unused8]": 9,
      "[unused9]": 10,
      "[unused10]": 11,
      "[unused11]": 12,
      "[unused12]": 13,
      "[unused13]": 14,
      "[unused14]": 15,
      "[unused15]": 16,
      "[unused16]": 17,
      "[unused17]": 18,
      "[unused18]": 19,
      "[unused19]": 20,
      "[unused20]": 21,
      "[unused21]": 22,
      "[unused22]": 23,
      "[unused23]": 24,
      "[unused24]": 25,
      "[unused25]": 26,
      "[unused26]": 27,
      "[unused27]": 28,
      "[unused28]": 29,
      "[unused29]": 30,
      "[unused30]": 31,
      "[unused31]": 32,
      "[unused32]": 33,
      "[unused33]": 34,
      "[unused34]": 35,
      "[unused35]": 36,
      "[unused36]": 37,
      "[unused37]": 38,
      "[unused38]": 39,
      "[unused39]": 40,
      "[unused40]": 41,
      "[unused41]": 42,
      "[unused42]": 43,
      "[unused43]": 44,
      "[unused44]": 45,
      "[unused45]": 46,
      "[unused46]": 47,
      "[unused47]": 48,
      "[unused48]": 49,
      "[unused49]": 50,
      "[unused50]": 51,
      "[unused51]": 52,
      "[unused52]": 53,
      "[unused53]": 54,
      "[unused54]": 55,
      "[unused55]": 56,
      "[unused56]": 57,
      "[unused57]": 58,
      "[unused58]": 59,
      "[unused59]": 60,
      "[unused60]": 61,
      "[unused61]": 62,
      "[unused62]": 63,
      "[unused63]": 64,
      "[unused64]": 65,
      "[unused65]": 66,
      "[unused66]": 67,
      "[unused67]": 68,
      "[unused68]": 69,
      "[unused69]": 70,
      "[unused70]": 71,
      "[unused71]": 72,
      "[unused72]": 73,
      "[unused73]": 74,
      "[unused74]": 75,
      "[unused75]": 76,
      "[unused76]": 77,
      "[unused77]": 78,
      "[unused78]": 79,
      "[unused79]": 80,
      "[unused80]": 81,
      "[unused81]": 82,
      "[unused82]": 83,
      "[unused83]": 84,
      "[unused84]": 85,
      "[unused85]": 86,
      "[unused86]": 87,
      "[unused87]": 88,
      "[unused88]": 89,
      "[unused89]": 90,
      "[unused90]": 91,
      "[unused91]": 92,
      "[unused92]": 93,
      "[unused93]": 94,
      "[unused94]": 95,
      "[unused95]": 96,
      "[unused96]": 97,
      "[unused97]": 98,
      "[unused98]": 99,
      "[unused99]": 100,
      "[UNK]": 101,
      "[CLS]": 102,
      "[SEP]": 103,
      "[MASK]": 104,
      "##ta": 105,
      "##en": 106,
      "##an": 107,
      "##in": 108,
      "##is": 109,
      "k": 110,
      "s": 111,
      ".": 112,
      "##la": 113,
      "##va": 114,
      "o": 115,
      "m": 116,
      "j": 117,
      "p": 118,
      "t": 119,
      ",": 120,
      "##ka": 121,
      "##sa": 122,
      "##it": 123,
      "##el": 124,
      "##et": 125,
      "##ma": 126,
      "h": 127,
      "a": 128,
      "##es": 129,
      "ja": 130,
      "##ut": 131,
      "##il": 132,
      "##on": 133,
      "##ti": 134,
      "##ks": 135,
      "n": 136,
      "##us": 137,
      "##aa": 138,
      "##os": 139,
      "##un": 140,
      "va": 141,
      "v": 142,
      "##er": 143,
      "##le": 144,
      "ta": 145,
      "##ik": 146,
      "##uo": 147,
      "on": 148,
      "e": 149,
      "ka": 150,
      "##ia": 151,
      "##ja": 152,
      "##ita": 153,
      "##to": 154,
      "l": 155,
      "##ista": 156,
      "##ko": 157,
      "##lla": 158,
      "r": 159,
      "##te": 160,
      "jo": 161,
      "##uu": 162,
      "##im": 163,
      "##al": 164,
      "y": 165,
      "##yt": 166,
      "##vat": 167,
      "##taa": 168,
      "ko": 169,
      "ol": 170,
      "-": 171,
      "##ul": 172,
      "la": 173,
      "##ih": 174,
      "##etta": 175,
      "##tu": 176,
      "##iin": 177,
      "##ke": 178,
      "##pa": 179,
      "ei": 180,
      "##kin": 181,
      "to": 182,
      "pa": 183,
      "##sta": 184,
      "##inen": 185,
      "##ki": 186,
      "##ssa": 187,
      "##ksi": 188,
      "##den": 189,
      "se": 190,
      "##ra": 191,
      "##een": 192,
      "##ty": 193,
      "sa": 194,
      "ku": 195,
      "##issa": 196,
      "vi": 197,
      "mu": 198,
      "##ella": 199,
      "ma": 200,
      "etta": 201,
      "##utta": 202,
      "##illa": 203,
      "##kaan": 204,
      "##man": 205,
      "en": 206,
      "##ten": 207,
      "##essa": 208,
      "##oit": 209,
      "##ot": 210,
      "##lis": 211,
      "##ku": 212,
      "##hd": 213,
      "##ol": 214,
      "si": 215,
      "##oi": 216,
      "##si": 217,
      "##tel": 218,
      "na": 219,
      "##ina": 220,
      "##esta": 221,
      "##em": 222,
      "##ur": 223,
      "##ys": 224,
      "##uks": 225,
      "##ir": 226,
      "##na": 227,
      "##maan": 228,
      "##mis": 229,
      "mi": 230,
      "te": 231,
      "##isi": 232,
      "kun": 233,
      ":": 234,
      "ra": 235,
      "val": 236,
      "##taan": 237,
      "##van": 238,
      "ole": 239,
      "al": 240,
      "##op": 241,
      "\"": 242,
      "ti": 243,
      "##uh": 244,
      "##ri": 245,
      "1": 246,
      "jos": 247,
      "##kaa": 248,
      "my": 249,
      "kan": 250,
      "oli": 251,
      "ha": 252,
      "##tta": 253,
      "##ille": 254,
      "##li": 255,
      "saa": 256,
      "##usta": 257,
      "paa": 258,
      "##se": 259,
      "##ien": 260,
      "##mm": 261,
      "##da": 262,
      "##lais": 263,
      "##ne": 264,
      "han": 265,
      "mutta": 266,
      "hy": 267,
      "suo": 268,
      "##jo": 269,
      "tar": 270,
      "##lo": 271,
      "ih": 272,
      "##jan": 273,
      "ty": 274,
      "tu": 275,
      "niin": 276,
      "##ist": 277,
      "as": 278,
      "##or": 279,
      "##itta": 280,
      "##han": 281,
      "maa": 282,
      "##ika": 283,
      "##yn": 284,
      "?": 285,
      "2": 286,
      "##pp": 287,
      "##uk": 288,
      "##ha": 289,
      "##ela": 290,
      "li": 291,
      ")": 292,
      "b": 293,
      "##iv": 294,
      "##sti": 295,
      "per": 296,
      "##mat": 297,
      "##isen": 298,
      "##eh": 299,
      "##iden": 300,
      "er": 301,
      "pal": 302,
      "ker": 303,
      "##ua": 304,
      "voi": 305,
      "##uol": 306,
      "myos": 307,
      "vuo": 308,
      "##esti": 309,
      "tai": 310,
      "##maa": 311,
      "##vaa": 312,
      "##oa": 313,
      "##ike": 314,
      "yh": 315,
      "il": 316,
      "hal": 317,
      "kuin": 318,
      "et": 319,
      "##unn": 320,
      "##jen": 321,
      "##sin": 322,
      "kaik": 323,
      "##elle": 324,
      "##ossa": 325,
      "po": 326,
      "ovat": 327,
      "##tti": 328,
      "es": 329,
      "lah": 330,
      "##oin": 331,
      "##uus": 332,
      "##isa": 333,
      "mita": 334,
      "##ana": 335,
      "##yy": 336,
      "sen": 337,
      "(": 338,
      "##vi": 339,
      "it": 340,
      "tuo": 341,
      "f": 342,
      "##val": 343,
      "##ikka": 344,
      "##iten": 345,
      "lu": 346,
      "kes": 347,
      "var": 348,
      "su": 349,
      "##hta": 350,
      "tul": 351,
      "ed": 352,
      "he": 353,
      "##osta": 354,
      "joka": 355,
      "##men": 356,
      "##mi": 357,
      "##tiin": 358,
      "ky": 359,
      "##mp": 360,
      "##me": 361,
      "san": 362,
      "ki": 363,
      "##eli": 364,
      "an": 365,
      "##min": 366,
      "##kka": 367,
      "ar": 368,
      "##lut": 369,
      "toim": 370,
      "!": 371,
      "men": 372,
      "##ksen": 373,
      "##mista": 374,
      "us": 375,
      "min": 376,
      "kir": 377,
      "##id": 378,
      "lo": 379,
      "##lle": 380,
      "##iko": 381,
      "##rj": 382,
      "sit": 383,
      "##up": 384,
      "##tan": 385,
      "##kon": 386,
      "par": 387,
      "me": 388,
      "##uksen": 389,
      "ne": 390,
      "##ro": 391,
      "##ken": 392,
      "–": 393,
      "nyt": 394,
      "##jat": 395,
      "##ity": 396,
      "d": 397,
      "##as": 398,
      "osa": 399,
      "ni": 400,
      "##ihin": 401,
      "##vin": 402,
      "##ell": 403,
      "le": 404,
      "##teen": 405,
      "##00": 406,
      "##tka": 407,
      "mukaan": 408,
      "kos": 409,
      "##ee": 410,
      "kuu": 411,
      "##minen": 412,
      "##massa": 413,
      "olla": 414,
      "tule": 415,
      "pita": 416,
      "kas": 417,
      "jal": 418,
      "sitten": 419,
      "##ussa": 420,
      "sy": 421,
      "##st": 422,
      "##ann": 423,
      "##isin": 424,
      "oike": 425,
      "c": 426,
      "sita": 427,
      "ai": 428,
      "##uud": 429,
      "##ky": 430,
      "##ud": 431,
      "tie": 432,
      "vain": 433,
      "##uon": 434,
      "##uut": 435,
      "##isto": 436,
      "miel": 437,
      "##nyt": 438,
      "no": 439,
      "ke": 440,
      "##tun": 441,
      "kayt": 442,
      "##paa": 443,
      "##ran": 444,
      "##kia": 445,
      "##re": 446,
      "aina": 447,
      "muut": 448,
      "##rin": 449,
      "##kea": 450,
      "hel": 451,
      "##isia": 452,
      "##ettu": 453,
      "3": 454,
      "vasta": 455,
      "##yh": 456,
      "##tia": 457,
      "##lan": 458,
      "ver": 459,
      "puol": 460,
      "##isesti": 461,
      "olisi": 462,
      "##ittaa": 463,
      "##ime": 464,
      "##mme": 465,
      "##keen": 466,
      "##kun": 467,
      "is": 468,
      "##tuu": 469,
      "##tin": 470,
      "/": 471,
      "##kan": 472,
      "##ollis": 473,
      "ela": 474,
      "##pi": 475,
      "##eri": 476,
      "viela": 477,
      "suu": 478,
      "##malla": 479,
      "kanssa": 480,
      "kor": 481,
      "itse": 482,
      "vaa": 483,
      "ollut": 484,
      "##aan": 485,
      "asia": 486,
      "##eksi": 487,
      "sel": 488,
      "lop": 489,
      "##ttaa": 490,
      "g": 491,
      "tiet": 492,
      "puh": 493,
      "##oja": 494,
      "olen": 495,
      "##kus": 496,
      "##sen": 497,
      "mon": 498,
      "kys": 499,
      "ihmis": 500,
      "sil": 501,
      "koko": 502,
      "kul": 503,
      "muu": 504,
      "tur": 505,
      "##iva": 506,
      "##eet": 507,
      "##via": 508,
      "van": 509,
      "vaan": 510,
      "##joit": 511,
      "kaikki": 512,
      "##elta": 513,
      "tun": 514,
      "##ton": 515,
      "##ni": 516,
      "##lin": 517,
      "vaikka": 518,
      "huo": 519,
      "sin": 520,
      "ihan": 521,
      "##jon": 522,
      "in": 523,
      "##ea": 524,
      "##iset": 525,
      "##llis": 526,
      "viime": 527,
      "vah": 528,
      "kuiten": 529,
      "##uv": 530,
      "lap": 531,
      "yhte": 532,
      "tapa": 533,
      "##ts": 534,
      "##rit": 535,
      "kylla": 536,
      "##rk": 537,
      "siita": 538,
      "##vasti": 539,
      "##mma": 540,
      "hen": 541,
      "so": 542,
      "pel": 543,
      "pol": 544,
      "os": 545,
      "hyva": 546,
      "tut": 547,
      "seka": 548,
      "##ena": 549,
      "##lta": 550,
      "lisa": 551,
      "##ellis": 552,
      "##laa": 553,
      "##ytta": 554,
      "pr": 555,
      "laa": 556,
      "##oita": 557,
      "##ulla": 558,
      "luo": 559,
      "##kko": 560,
      "##he": 561,
      "##jaa": 562,
      "##ikko": 563,
      "##vel": 564,
      "op": 565,
      "tama": 566,
      "ul": 567,
      "##lit": 568,
      "##ivat": 569,
      "yli": 570,
      "kol": 571,
      "##oo": 572,
      "##era": 573,
      "##nut": 574,
      "aika": 575,
      "pi": 576,
      "##ani": 577,
      "5": 578,
      "jalkeen": 579,
      "##toa": 580,
      "pit": 581,
      "##mia": 582,
      "tod": 583,
      "##ve": 584,
      "oh": 585,
      "##ksia": 586,
      "yhd": 587,
      "ri": 588,
      "##ilta": 589,
      "eur": 590,
      "##uun": 591,
      "##osi": 592,
      "hi": 593,
      "jon": 594,
      "kay": 595,
      "voit": 596,
      "kar": 597,
      "w": 598,
      "aut": 599,
      "suomen": 600,
      "asi": 601,
      "##erk": 602,
      "tyo": 603,
      "perus": 604,
      "##uuden": 605,
      "kiin": 606,
      "##inta": 607,
      "re": 608,
      "paljon": 609,
      "mitaan": 610,
      "mahd": 611,
      "4": 612,
      "##vo": 613,
      "##utu": 614,
      "jat": 615,
      "el": 616,
      "enn": 617,
      "##kil": 618,
      "hyvin": 619,
      "##itse": 620,
      "tulee": 621,
      "las": 622,
      "esim": 623,
      "kerto": 624,
      "##ll": 625,
      "yle": 626,
      "koska": 627,
      "##imma": 628,
      "##anta": 629,
      "eli": 630,
      "kaup": 631,
      "teh": 632,
      "kuitenkin": 633,
      "##om": 634,
      "##loin": 635,
      "##hda": 636,
      "##rjes": 637,
      "##etaan": 638,
      "keh": 639,
      "##kas": 640,
      "##ue": 641,
      "vaih": 642,
      "##oh": 643,
      "eika": 644,
      "##tua": 645,
      "tois": 646,
      "##emmin": 647,
      "##ili": 648,
      "yks": 649,
      "pela": 650,
      "pien": 651,
      "##lainen": 652,
      "eivat": 653,
      "##ura": 654,
      "##ksa": 655,
      "##matta": 656,
      "eri": 657,
      "##olla": 658,
      "py": 659,
      "jotka": 660,
      "ruo": 661,
      "##ittel": 662,
      "##tte": 663,
      "##ettiin": 664,
      "vo": 665,
      "##ota": 666,
      "##tain": 667,
      "##neet": 668,
      "##pu": 669,
      "suur": 670,
      "mo": 671,
      "muuta": 672,
      "##uutta": 673,
      "##emman": 674,
      "##itty": 675,
      "##pail": 676,
      "pitaa": 677,
      "silla": 678,
      "liik": 679,
      "##osen": 680,
      "##etty": 681,
      "##gin": 682,
      "##dot": 683,
      "mika": 684,
      "kon": 685,
      "har": 686,
      "##isiin": 687,
      "ens": 688,
      "##iina": 689,
      "koh": 690,
      "##uden": 691,
      "##oon": 692,
      "siis": 693,
      "vuoden": 694,
      "##kseen": 695,
      "##yty": 696,
      "teke": 697,
      "miten": 698,
      "nim": 699,
      "##idan": 700,
      "20": 701,
      "##tt": 702,
      "##ian": 703,
      "##eita": 704,
      "##uksia": 705,
      "##pal": 706,
      "kil": 707,
      "mil": 708,
      "##istu": 709,
      "##mmen": 710,
      "kuul": 711,
      "##isten": 712,
      "##kk": 713,
      "vas": 714,
      "##kkaa": 715,
      "ter": 716,
      "##ilan": 717,
      "aik": 718,
      "ennen": 719,
      "##ar": 720,
      "19": 721,
      "pys": 722,
      "jossa": 723,
      "jul": 724,
      "uus": 725,
      "##isty": 726,
      "##uma": 727,
      "talla": 728,
      "nuo": 729,
      "kut": 730,
      "het": 731,
      "##jel": 732,
      "##sto": 733,
      "jaa": 734,
      "seur": 735,
      "tarv": 736,
      "eh": 737,
      "##misen": 738,
      "##nan": 739,
      "##uonna": 740,
      "poh": 741,
      "noin": 742,
      "kats": 743,
      "ette": 744,
      "maail": 745,
      "##uttaa": 746,
      "##ukku": 747,
      "mieh": 748,
      "suom": 749,
      "hanen": 750,
      "joh": 751,
      "sai": 752,
      "##esi": 753,
      "##ss": 754,
      "##lista": 755,
      "##tion": 756,
      "vir": 757,
      "yr": 758,
      "##ria": 759,
      "ro": 760,
      "##telu": 761,
      "usko": 762,
      "joten": 763,
      "ny": 764,
      "vuonna": 765,
      "##kki": 766,
      "sop": 767,
      "##oista": 768,
      "koul": 769,
      "##ulle": 770,
      "##tetaan": 771,
      "6": 772,
      "##oiden": 773,
      "##masta": 774,
      "##usi": 775,
      "ensimma": 776,
      "siina": 777,
      "##tio": 778,
      "##ivan": 779,
      "##ihen": 780,
      "suoma": 781,
      "poli": 782,
      "kansa": 783,
      "tunn": 784,
      "syn": 785,
      "juu": 786,
      "##kset": 787,
      "ulko": 788,
      "##ter": 789,
      "##iti": 790,
      "##una": 791,
      "##isti": 792,
      "##tele": 793,
      "ve": 794,
      "kanna": 795,
      "##uos": 796,
      "kirjoit": 797,
      "##mpa": 798,
      "##ver": 799,
      "##ust": 800,
      "##johta": 801,
      "tassa": 802,
      "tarko": 803,
      "vaik": 804,
      "##tom": 805,
      "##de": 806,
      "##ojen": 807,
      "taa": 808,
      "siihen": 809,
      "##daan": 810,
      "raken": 811,
      "##toon": 812,
      "sella": 813,
      "##ui": 814,
      "taman": 815,
      "##isaa": 816,
      "i": 817,
      "##ensa": 818,
      "##yd": 819,
      "##istaa": 820,
      "##assa": 821,
      "keskus": 822,
      "##kim": 823,
      "helsin": 824,
      "##enn": 825,
      "tapah": 826,
      "##uka": 827,
      "ain": 828,
      "ala": 829,
      "##valla": 830,
      "saan": 831,
      "hallit": 832,
      "mies": 833,
      "kaupun": 834,
      "mahdollis": 835,
      "vahan": 836,
      "##ihe": 837,
      "syy": 838,
      "##kunn": 839,
      "henkil": 840,
      "uud": 841,
      "##alle": 842,
      "ettei": 843,
      "##ukset": 844,
      "lisaksi": 845,
      "##ikon": 846,
      "haa": 847,
      "##raa": 848,
      "merk": 849,
      "taas": 850,
      "talo": 851,
      "##gel": 852,
      "yksi": 853,
      "pain": 854,
      "##isteri": 855,
      "lin": 856,
      "niita": 857,
      "kesk": 858,
      "##toja": 859,
      "##oitta": 860,
      "tal": 861,
      "vanh": 862,
      "maan": 863,
      "nayt": 864,
      "nyky": 865,
      "##ker": 866,
      "##elleen": 867,
      "koke": 868,
      "##otta": 869,
      "7": 870,
      "mina": 871,
      "##ttia": 872,
      "##uta": 873,
      "200": 874,
      "##ras": 875,
      "laps": 876,
      "am": 877,
      "halua": 878,
      "ot": 879,
      "##ikin": 880,
      "nain": 881,
      "##misesta": 882,
      "aikana": 883,
      "its": 884,
      "enemman": 885,
      "kaa": 886,
      "vena": 887,
      "olet": 888,
      "##linen": 889,
      "##kana": 890,
      "##kel": 891,
      "##laiset": 892,
      "##ppa": 893,
      "oma": 894,
      "kunn": 895,
      "met": 896,
      "##ito": 897,
      "vastaan": 898,
      "##uksessa": 899,
      "seuraa": 900,
      "##per": 901,
      "ilm": 902,
      "##alta": 903,
      "##onn": 904,
      "aa": 905,
      "kaksi": 906,
      "##puol": 907,
      "##voit": 908,
      "##unut": 909,
      "onko": 910,
      "onn": 911,
      "kuo": 912,
      "ehka": 913,
      "8": 914,
      "edes": 915,
      "##ikan": 916,
      "prosen": 917,
      "##dan": 918,
      "tuli": 919,
      "mar": 920,
      "##jaan": 921,
      "##din": 922,
      "tana": 923,
      "toiv": 924,
      "##len": 925,
      "ajan": 926,
      "##tunut": 927,
      "joku": 928,
      "##tui": 929,
      "juma": 930,
      "##oma": 931,
      "##di": 932,
      "jonka": 933,
      "##kke": 934,
      "##san": 935,
      "##tyy": 936,
      "aja": 937,
      "##haa": 938,
      "##ytyy": 939,
      "jarjes": 940,
      "##kuu": 941,
      "##saa": 942,
      "##um": 943,
      "##imme": 944,
      "##inna": 945,
      "todella": 946,
      "##miseen": 947,
      "00": 948,
      "kuten": 949,
      "tehda": 950,
      "##ittain": 951,
      "kysy": 952,
      "use": 953,
      "enaa": 954,
      "##etti": 955,
      "juuri": 956,
      "##my": 957,
      "##ga": 958,
      "huon": 959,
      "##po": 960,
      "nel": 961,
      "tos": 962,
      "##iseen": 963,
      "##laisten": 964,
      "ainakin": 965,
      "un": 966,
      "##osti": 967,
      "##masti": 968,
      "##jien": 969,
      "aihe": 970,
      "nor": 971,
      "##eseen": 972,
      "##uja": 973,
      "vuos": 974,
      "##do": 975,
      "##empi": 976,
      "##allis": 977,
      "##ppi": 978,
      "##kona": 979,
      "##ven": 980,
      "tyon": 981,
      "##mmar": 982,
      "mielesta": 983,
      "paika": 984,
      "por": 985,
      "sis": 986,
      "##eessa": 987,
      "##mo": 988,
      "ajat": 989,
      "##itys": 990,
      "##itto": 991,
      "jotain": 992,
      "mm": 993,
      "##laisia": 994,
      "##hti": 995,
      "##uko": 996,
      "vai": 997,
      "##itaan": 998,
      "tilan": 999,
      "##teet": 1000,
      "siir": 1001,
      "siv": 1002,
      "vuotta": 1003,
      "9": 1004,
      "sisa": 1005,
      "tahan": 1006,
      "muo": 1007,
      "ongel": 1008,
      "paiva": 1009,
      "epa": 1010,
      "ehd": 1011,
      "##illaan": 1012,
      "jut": 1013,
      "suh": 1014,
      "##pan": 1015,
      "##unta": 1016,
      "##yys": 1017,
      "ymmar": 1018,
      "tor": 1019,
      "suomessa": 1020,
      "pois": 1021,
      "nuor": 1022,
      "##vien": 1023,
      "##ess": 1024,
      "##ite": 1025,
      "##utus": 1026,
      "##ministeri": 1027,
      "0": 1028,
      "neuv": 1029,
      "201": 1030,
      "##kasta": 1031,
      "##oku": 1032,
      "ilman": 1033,
      "siella": 1034,
      "palvel": 1035,
      "silloin": 1036,
      "##kiksi": 1037,
      "ran": 1038,
      "##johtaja": 1039,
      "maailman": 1040,
      "##tila": 1041,
      "10": 1042,
      "esimer": 1043,
      "##teita": 1044,
      "##ho": 1045,
      "olevan": 1046,
      "##otto": 1047,
      "alue": 1048,
      "muuten": 1049,
      "##ettava": 1050,
      "aan": 1051,
      "ken": 1052,
      "kr": 1053,
      "##hden": 1054,
      "##isesta": 1055,
      "##tto": 1056,
      "ho": 1057,
      "##rja": 1058,
      "seura": 1059,
      "ilma": 1060,
      "##itus": 1061,
      "suunn": 1062,
      "vih": 1063,
      "##laisen": 1064,
      "pan": 1065,
      ";": 1066,
      "esimerkiksi": 1067,
      "muka": 1068,
      "##joon": 1069,
      "koti": 1070,
      "olivat": 1071,
      "mat": 1072,
      "##lia": 1073,
      "keski": 1074,
      "euro": 1075,
      "##ellaan": 1076,
      "##lu": 1077,
      "##vallis": 1078,
      "##pain": 1079,
      "hyo": 1080,
      "ympa": 1081,
      "her": 1082,
      "pitaisi": 1083,
      "##taja": 1084,
      "##kuun": 1085,
      "maara": 1086,
      "##inn": 1087,
      "kirja": 1088,
      "oikea": 1089,
      "tan": 1090,
      "kiinn": 1091,
      "##don": 1092,
      "lopp": 1093,
      "kertoo": 1094,
      "toimi": 1095,
      "pe": 1096,
      "tila": 1097,
      "##ttu": 1098,
      "pro": 1099,
      "##kes": 1100,
      "##ska": 1101,
      "##oli": 1102,
      "tutkim": 1103,
      "nop": 1104,
      "##kunta": 1105,
      "##ile": 1106,
      "sanoo": 1107,
      "##je": 1108,
      "halu": 1109,
      "mark": 1110,
      "##ing": 1111,
      "##sia": 1112,
      "##itti": 1113,
      "##emp": 1114,
      "lisaa": 1115,
      "taka": 1116,
      "terve": 1117,
      "aivan": 1118,
      "##teli": 1119,
      "miljoon": 1120,
      "vastaa": 1121,
      "sanoi": 1122,
      "arv": 1123,
      "pelaa": 1124,
      "missa": 1125,
      "vaike": 1126,
      "yhteis": 1127,
      "##jia": 1128,
      "selv": 1129,
      "liitty": 1130,
      "##ost": 1131,
      "##kee": 1132,
      "pu": 1133,
      "saada": 1134,
      "##pe": 1135,
      "alkaa": 1136,
      "##esty": 1137,
      "paat": 1138,
      "tarjo": 1139,
      "arvi": 1140,
      "ur": 1141,
      "toinen": 1142,
      "av": 1143,
      "##mpi": 1144,
      "main": 1145,
      "kilpail": 1146,
      "##isena": 1147,
      "##ise": 1148,
      "##erg": 1149,
      "##isessa": 1150,
      "##vaan": 1151,
      "##teessa": 1152,
      "jopa": 1153,
      "aikaa": 1154,
      "##onta": 1155,
      "len": 1156,
      "puo": 1157,
      "##usa": 1158,
      "johta": 1159,
      "##ch": 1160,
      "##tojen": 1161,
      "##itel": 1162,
      "yl": 1163,
      "taalla": 1164,
      "miksi": 1165,
      "fi": 1166,
      "vara": 1167,
      "suos": 1168,
      "##laista": 1169,
      "##iksi": 1170,
      "aloit": 1171,
      "##lon": 1172,
      "##oissa": 1173,
      "##mmin": 1174,
      "tote": 1175,
      "##ya": 1176,
      "tarke": 1177,
      "##kiin": 1178,
      "kau": 1179,
      "nous": 1180,
      "kuinka": 1181,
      "##tanut": 1182,
      "##elin": 1183,
      "##olle": 1184,
      "voisi": 1185,
      "tas": 1186,
      "##ukseen": 1187,
      "##iseksi": 1188,
      "##onen": 1189,
      "##kti": 1190,
      "maksa": 1191,
      "##kunnan": 1192,
      "paivan": 1193,
      "##ysta": 1194,
      "##eta": 1195,
      "uh": 1196,
      "ir": 1197,
      "toimin": 1198,
      "##tien": 1199,
      "saman": 1200,
      "maks": 1201,
      "##estaan": 1202,
      "eu": 1203,
      "raa": 1204,
      "alku": 1205,
      "valmis": 1206,
      "alko": 1207,
      "yhdys": 1208,
      "kesa": 1209,
      "mel": 1210,
      "##var": 1211,
      "ensi": 1212,
      "loy": 1213,
      "kertaa": 1214,
      "tays": 1215,
      "erity": 1216,
      "##iston": 1217,
      "meilla": 1218,
      "tata": 1219,
      "##isella": 1220,
      "odot": 1221,
      "ylla": 1222,
      "teki": 1223,
      "##ksessa": 1224,
      "##kul": 1225,
      "kautta": 1226,
      "##su": 1227,
      "##tya": 1228,
      "kerran": 1229,
      "##mien": 1230,
      "##voi": 1231,
      "##ynn": 1232,
      "##staan": 1233,
      "osaa": 1234,
      "tuh": 1235,
      "jasen": 1236,
      "hie": 1237,
      "##iste": 1238,
      "kuva": 1239,
      "ohjel": 1240,
      "##ikkaa": 1241,
      "'": 1242,
      "sah": 1243,
      "prosenttia": 1244,
      "15": 1245,
      "kier": 1246,
      "juh": 1247,
      "jota": 1248,
      "ita": 1249,
      "##uudessa": 1250,
      "##valta": 1251,
      "000": 1252,
      "##esiden": 1253,
      "##uksi": 1254,
      "kaytta": 1255,
      "##ksesta": 1256,
      "vaati": 1257,
      "sal": 1258,
      "##vissa": 1259,
      "oikein": 1260,
      "##ukko": 1261,
      "uut": 1262,
      "##ikki": 1263,
      "##ansa": 1264,
      "yrit": 1265,
      "##ittu": 1266,
      "##tynyt": 1267,
      "lain": 1268,
      "##jar": 1269,
      "##io": 1270,
      "euroop": 1271,
      "ottaa": 1272,
      "##usten": 1273,
      "##istaan": 1274,
      "##rat": 1275,
      "pala": 1276,
      "ympar": 1277,
      "viikon": 1278,
      "jar": 1279,
      "pohjo": 1280,
      "##hde": 1281,
      "ase": 1282,
      "ratka": 1283,
      "##uksesta": 1284,
      "lahes": 1285,
      "yhta": 1286,
      "##vuo": 1287,
      "##ukka": 1288,
      "presiden": 1289,
      "##ket": 1290,
      "pah": 1291,
      "tasta": 1292,
      "##ellinen": 1293,
      "muun": 1294,
      "mukana": 1295,
      "tehta": 1296,
      "oman": 1297,
      "##og": 1298,
      "##rjoit": 1299,
      "valta": 1300,
      "julk": 1301,
      "ryh": 1302,
      "##tsa": 1303,
      "tieda": 1304,
      "lau": 1305,
      "##utti": 1306,
      "syo": 1307,
      "joskus": 1308,
      "otta": 1309,
      "##ustan": 1310,
      "kolme": 1311,
      "##lassa": 1312,
      "##gan": 1313,
      "##ttuu": 1314,
      "##istel": 1315,
      "auto": 1316,
      "joukku": 1317,
      "matka": 1318,
      "lii": 1319,
      "##ollista": 1320,
      "lahte": 1321,
      "##kein": 1322,
      "##ssi": 1323,
      "kuuka": 1324,
      "samalla": 1325,
      "##ostaa": 1326,
      "##at": 1327,
      "##jana": 1328,
      "##dia": 1329,
      "##erin": 1330,
      "rauh": 1331,
      "##ihan": 1332,
      "edelleen": 1333,
      "uskon": 1334,
      "juo": 1335,
      "sano": 1336,
      "luu": 1337,
      "tanaan": 1338,
      "##kkaan": 1339,
      "##itsi": 1340,
      "asian": 1341,
      "vast": 1342,
      "kai": 1343,
      "##toim": 1344,
      "pid": 1345,
      "##ksan": 1346,
      "kyse": 1347,
      "tarvitse": 1348,
      "##ulu": 1349,
      "12": 1350,
      "##maal": 1351,
      "mun": 1352,
      "##iss": 1353,
      "##usti": 1354,
      "lait": 1355,
      "##itan": 1356,
      "osallis": 1357,
      "ammat": 1358,
      "##raan": 1359,
      "uuden": 1360,
      "ilmoit": 1361,
      "pari": 1362,
      "koskaan": 1363,
      "niiden": 1364,
      "kymmen": 1365,
      "alle": 1366,
      "##ele": 1367,
      "##empaa": 1368,
      "##yttaa": 1369,
      "usein": 1370,
      "##met": 1371,
      "uusi": 1372,
      "lan": 1373,
      "##vassa": 1374,
      "##oike": 1375,
      "##hal": 1376,
      "##tit": 1377,
      "heti": 1378,
      "##ulta": 1379,
      "##vasta": 1380,
      "aam": 1381,
      "tasa": 1382,
      "##ppu": 1383,
      "tavoit": 1384,
      "tieto": 1385,
      "valilla": 1386,
      "tullut": 1387,
      "saanut": 1388,
      "je": 1389,
      "##paan": 1390,
      "yleensa": 1391,
      "hieman": 1392,
      "##vista": 1393,
      "##iaan": 1394,
      "ava": 1395,
      "aiko": 1396,
      "minun": 1397,
      "nama": 1398,
      "tapahtu": 1399,
      "rakenn": 1400,
      "antaa": 1401,
      "huol": 1402,
      "##matto": 1403,
      "##ilu": 1404,
      "paiv": 1405,
      "##ynyt": 1406,
      "mer": 1407,
      "30": 1408,
      "##eni": 1409,
      "##illis": 1410,
      "##kuussa": 1411,
      "tek": 1412,
      "##teki": 1413,
      "meidan": 1414,
      "suomi": 1415,
      "sama": 1416,
      "mal": 1417,
      "heidan": 1418,
      "kann": 1419,
      "##tyi": 1420,
      "##ikke": 1421,
      "varmaan": 1422,
      "##ksy": 1423,
      "##ettaa": 1424,
      "ras": 1425,
      "##tar": 1426,
      "##iha": 1427,
      "takia": 1428,
      "voidaan": 1429,
      "ent": 1430,
      "yksin": 1431,
      "tiedot": 1432,
      "kaiken": 1433,
      "muita": 1434,
      "opis": 1435,
      "##jarjes": 1436,
      "##antaina": 1437,
      "pik": 1438,
      "vapaa": 1439,
      "##hoit": 1440,
      "##iton": 1441,
      "kel": 1442,
      "sina": 1443,
      "joita": 1444,
      "—": 1445,
      "vuod": 1446,
      "##essaan": 1447,
      "##osto": 1448,
      "tyy": 1449,
      "##leet": 1450,
      "katso": 1451,
      "toisen": 1452,
      "pitka": 1453,
      "liian": 1454,
      "##llaan": 1455,
      "##vy": 1456,
      "##telee": 1457,
      "kal": 1458,
      "ap": 1459,
      "sahko": 1460,
      "ilta": 1461,
      "##kaup": 1462,
      "ika": 1463,
      "tulo": 1464,
      "##non": 1465,
      "taysin": 1466,
      "aikaan": 1467,
      "run": 1468,
      "##ityksen": 1469,
      "sija": 1470,
      "ottel": 1471,
      "puheen": 1472,
      "help": 1473,
      "##eiden": 1474,
      "ainoa": 1475,
      "##so": 1476,
      "##miin": 1477,
      "##itt": 1478,
      "##sy": 1479,
      "##dat": 1480,
      "eloku": 1481,
      "##yr": 1482,
      "##kit": 1483,
      "##vais": 1484,
      "##kut": 1485,
      "##ip": 1486,
      "tah": 1487,
      "##kohta": 1488,
      "##eto": 1489,
      "pur": 1490,
      "henkilo": 1491,
      "ihmiset": 1492,
      "vel": 1493,
      "mielen": 1494,
      "arvo": 1495,
      "##kar": 1496,
      "##vana": 1497,
      "##tuna": 1498,
      "ik": 1499,
      "helsingin": 1500,
      "tavalla": 1501,
      "menee": 1502,
      "luv": 1503,
      "kuulu": 1504,
      "##toi": 1505,
      "varmasti": 1506,
      "sopim": 1507,
      "euroa": 1508,
      "##nassa": 1509,
      "##paiva": 1510,
      "sosi": 1511,
      "kasv": 1512,
      "yhteen": 1513,
      "loytyy": 1514,
      "##ona": 1515,
      "##tanyt": 1516,
      "huomi": 1517,
      "lasten": 1518,
      "itsen": 1519,
      "##utuu": 1520,
      "puut": 1521,
      "##imp": 1522,
      "voin": 1523,
      "jolla": 1524,
      "##tamaan": 1525,
      "kokem": 1526,
      "yhden": 1527,
      "mut": 1528,
      "pysty": 1529,
      "kaupungin": 1530,
      "##palvel": 1531,
      "kiel": 1532,
      "pohjois": 1533,
      "##mpia": 1534,
      "varsin": 1535,
      "##kku": 1536,
      "##gissa": 1537,
      "mista": 1538,
      "##joita": 1539,
      "tuu": 1540,
      "menna": 1541,
      "##talo": 1542,
      "##las": 1543,
      "olis": 1544,
      "iso": 1545,
      "luonn": 1546,
      "ysta": 1547,
      "##emme": 1548,
      "yhdysval": 1549,
      "pyy": 1550,
      "##tuksen": 1551,
      "yliop": 1552,
      "vuoksi": 1553,
      "kannattaa": 1554,
      "kyl": 1555,
      "11": 1556,
      "##itos": 1557,
      "kat": 1558,
      "sosiaa": 1559,
      "kukaan": 1560,
      "##rasta": 1561,
      "paasta": 1562,
      "elaman": 1563,
      "##enkin": 1564,
      "opp": 1565,
      "##ren": 1566,
      "julka": 1567,
      "tekee": 1568,
      "##kella": 1569,
      "sijoit": 1570,
      "##ottaa": 1571,
      "18": 1572,
      "##osa": 1573,
      "##joiden": 1574,
      "##kor": 1575,
      "tuon": 1576,
      "parha": 1577,
      "##eja": 1578,
      "kertoi": 1579,
      "valtion": 1580,
      "kayttaa": 1581,
      "miet": 1582,
      "myy": 1583,
      "tuntuu": 1584,
      "kansain": 1585,
      "##isu": 1586,
      "vil": 1587,
      "kuitenkaan": 1588,
      "##ksella": 1589,
      "nopea": 1590,
      "##ttiin": 1591,
      "olin": 1592,
      "##ba": 1593,
      "mole": 1594,
      "jatku": 1595,
      "##ff": 1596,
      "##ira": 1597,
      "hui": 1598,
      "jotta": 1599,
      "##por": 1600,
      "raha": 1601,
      "omista": 1602,
      "##ksista": 1603,
      "muista": 1604,
      "##vansa": 1605,
      "ann": 1606,
      "jees": 1607,
      "nelja": 1608,
      "til": 1609,
      "##voin": 1610,
      "huu": 1611,
      "##ed": 1612,
      "##its": 1613,
      "juttu": 1614,
      "vies": 1615,
      "##ueen": 1616,
      "##neksi": 1617,
      "esiin": 1618,
      "##kos": 1619,
      "##mpaa": 1620,
      "edusta": 1621,
      "kiinni": 1622,
      "poliisi": 1623,
      "jumala": 1624,
      "##vaksi": 1625,
      "##ivaa": 1626,
      "mieli": 1627,
      "##ksu": 1628,
      "tehd": 1629,
      "muassa": 1630,
      "##isivat": 1631,
      "##yo": 1632,
      "tietaa": 1633,
      "aiemmin": 1634,
      "##imi": 1635,
      "kommen": 1636,
      "vaihto": 1637,
      "##yden": 1638,
      "suomalais": 1639,
      "keskustel": 1640,
      "opet": 1641,
      "tunte": 1642,
      "markkin": 1643,
      "paase": 1644,
      "sisal": 1645,
      "##keli": 1646,
      "##jalle": 1647,
      "asti": 1648,
      "yleis": 1649,
      "enna": 1650,
      "mur": 1651,
      "##uudesta": 1652,
      "suurin": 1653,
      "##gen": 1654,
      "##missa": 1655,
      "##kkia": 1656,
      "hoit": 1657,
      "perjan": 1658,
      "kis": 1659,
      "naa": 1660,
      "##jalla": 1661,
      "##isista": 1662,
      "##annut": 1663,
      "silti": 1664,
      "sinun": 1665,
      "kaytan": 1666,
      "minulla": 1667,
      "tuolla": 1668,
      "##eena": 1669,
      "vanha": 1670,
      "siksi": 1671,
      "metsa": 1672,
      "##iaa": 1673,
      "##iraa": 1674,
      "##log": 1675,
      "alka": 1676,
      "tyh": 1677,
      "##pol": 1678,
      "asu": 1679,
      "tarkoit": 1680,
      "##ck": 1681,
      "##teella": 1682,
      "paas": 1683,
      "normaal": 1684,
      "tr": 1685,
      "haluaa": 1686,
      "##imo": 1687,
      "vie": 1688,
      "##olog": 1689,
      "tosin": 1690,
      "vier": 1691,
      "##itysta": 1692,
      "##ju": 1693,
      "##iassa": 1694,
      "lyh": 1695,
      "##ustus": 1696,
      "##ettua": 1697,
      "suun": 1698,
      "##intaan": 1699,
      "toista": 1700,
      "##inaa": 1701,
      "##maara": 1702,
      "erittain": 1703,
      "%": 1704,
      "mus": 1705,
      "sinne": 1706,
      "ruot": 1707,
      "ihminen": 1708,
      "##oihin": 1709,
      "etela": 1710,
      "##tr": 1711,
      "yritta": 1712,
      "puu": 1713,
      "##tus": 1714,
      "euroopan": 1715,
      "sur": 1716,
      "osoit": 1717,
      "ruoka": 1718,
      "ba": 1719,
      "kaun": 1720,
      "##mpp": 1721,
      "##oilla": 1722,
      "##ysti": 1723,
      "tosi": 1724,
      "puhu": 1725,
      "##ister": 1726,
      "199": 1727,
      "edus": 1728,
      "lapsen": 1729,
      "put": 1730,
      "##pit": 1731,
      "jumalan": 1732,
      "tyt": 1733,
      "hil": 1734,
      "hoita": 1735,
      "hien": 1736,
      "##lleen": 1737,
      "fa": 1738,
      "mihin": 1739,
      "u": 1740,
      "hallin": 1741,
      "##isit": 1742,
      "##imman": 1743,
      "tied": 1744,
      "kur": 1745,
      "##kat": 1746,
      "ah": 1747,
      "turvallis": 1748,
      "valit": 1749,
      "minulle": 1750,
      "kaikkia": 1751,
      "kohd": 1752,
      "pako": 1753,
      "miljoonaa": 1754,
      "riitta": 1755,
      "muiden": 1756,
      "sunn": 1757,
      "net": 1758,
      "##miseksi": 1759,
      "##tava": 1760,
      "pikku": 1761,
      "puoli": 1762,
      "##mys": 1763,
      "##teja": 1764,
      "kansan": 1765,
      "viera": 1766,
      "ensin": 1767,
      "tot": 1768,
      "”": 1769,
      "yhdessa": 1770,
      "##nin": 1771,
      "mahdollista": 1772,
      "raja": 1773,
      "hallitus": 1774,
      "neuvot": 1775,
      "perjanta": 1776,
      "##lah": 1777,
      "##ksiin": 1778,
      "ihmisia": 1779,
      "yhteisty": 1780,
      "##oni": 1781,
      "sam": 1782,
      "urhe": 1783,
      "##tis": 1784,
      "16": 1785,
      "##ehto": 1786,
      "13": 1787,
      "verran": 1788,
      "rik": 1789,
      "##uksista": 1790,
      "takaisin": 1791,
      "milla": 1792,
      "viikko": 1793,
      "kahden": 1794,
      "##tavat": 1795,
      "##mus": 1796,
      "br": 1797,
      "##enne": 1798,
      "osta": 1799,
      "nako": 1800,
      "niista": 1801,
      "kohta": 1802,
      "voima": 1803,
      "sov": 1804,
      "14": 1805,
      "nainen": 1806,
      "##emi": 1807,
      "venajan": 1808,
      "##oid": 1809,
      "suku": 1810,
      "##immat": 1811,
      "##liin": 1812,
      "kiv": 1813,
      "saattaa": 1814,
      "nayttaa": 1815,
      "##ellisen": 1816,
      "##kerta": 1817,
      "musi": 1818,
      "##kossa": 1819,
      "kah": 1820,
      "hir": 1821,
      "##ppaa": 1822,
      "##eensa": 1823,
      "toki": 1824,
      "##tely": 1825,
      "ry": 1826,
      "##laan": 1827,
      "##kkos": 1828,
      "##isuus": 1829,
      "perin": 1830,
      "sanoa": 1831,
      "##ce": 1832,
      "hyvaa": 1833,
      "##no": 1834,
      "harjoit": 1835,
      "##sivat": 1836,
      "taytyy": 1837,
      "oikeus": 1838,
      "##issaan": 1839,
      "kovin": 1840,
      "miehen": 1841,
      "sta": 1842,
      "tulla": 1843,
      "myoh": 1844,
      "kerr": 1845,
      "yksity": 1846,
      "kuuluu": 1847,
      "paato": 1848,
      "nah": 1849,
      "##stus": 1850,
      "muod": 1851,
      "olemme": 1852,
      "perhe": 1853,
      "energ": 1854,
      "##lloin": 1855,
      "paikka": 1856,
      "mene": 1857,
      "asun": 1858,
      "naita": 1859,
      "suuri": 1860,
      "loppu": 1861,
      "naky": 1862,
      "vaal": 1863,
      "##ori": 1864,
      "vapa": 1865,
      "josta": 1866,
      "##ija": 1867,
      "kokona": 1868,
      "ammatti": 1869,
      "##ine": 1870,
      "##emma": 1871,
      "##uttu": 1872,
      "##der": 1873,
      "omaa": 1874,
      "##ire": 1875,
      "hallituksen": 1876,
      "##vet": 1877,
      "arvioi": 1878,
      "sar": 1879,
      "asiasta": 1880,
      "##ppo": 1881,
      "##lat": 1882,
      "tehty": 1883,
      "joiden": 1884,
      "##kien": 1885,
      "teks": 1886,
      "##ujen": 1887,
      "olleet": 1888,
      "poi": 1889,
      "joissa": 1890,
      "##itaa": 1891,
      "##vaih": 1892,
      "##valis": 1893,
      "korkea": 1894,
      "torsta": 1895,
      "##imin": 1896,
      "tyonteki": 1897,
      "##imm": 1898,
      "vahv": 1899,
      "##yyd": 1900,
      "maahan": 1901,
      "##tona": 1902,
      "##jet": 1903,
      "jolloin": 1904,
      "##viin": 1905,
      "voivat": 1906,
      "tarp": 1907,
      "##suo": 1908,
      "##tuvat": 1909,
      "minua": 1910,
      "minka": 1911,
      "paalle": 1912,
      "ensimmainen": 1913,
      "presidentti": 1914,
      "sul": 1915,
      "man": 1916,
      "epail": 1917,
      "tietoa": 1918,
      "##uri": 1919,
      "or": 1920,
      "##vas": 1921,
      "##istus": 1922,
      "yritys": 1923,
      "asioita": 1924,
      "##uuteen": 1925,
      "johon": 1926,
      "mielta": 1927,
      "##ktiiv": 1928,
      "##ms": 1929,
      "helsinki": 1930,
      "##von": 1931,
      "pakko": 1932,
      "jarj": 1933,
      "##mmat": 1934,
      "mulla": 1935,
      "##ikolla": 1936,
      "vau": 1937,
      "saksa": 1938,
      "50": 1939,
      "kesta": 1940,
      "rii": 1941,
      "##pera": 1942,
      "jatko": 1943,
      "kulttuu": 1944,
      "##ellista": 1945,
      "##mana": 1946,
      "kuole": 1947,
      "minuut": 1948,
      "tamp": 1949,
      "ven": 1950,
      "da": 1951,
      "##teiden": 1952,
      "piir": 1953,
      "hom": 1954,
      "##ilen": 1955,
      "##hon": 1956,
      "kuol": 1957,
      "lev": 1958,
      "##ston": 1959,
      "id": 1960,
      "keskivi": 1961,
      "##joukku": 1962,
      "##telemaan": 1963,
      "koske": 1964,
      "de": 1965,
      "##iselle": 1966,
      "##mieh": 1967,
      "toden": 1968,
      "##jille": 1969,
      "eteen": 1970,
      "##nako": 1971,
      "##onin": 1972,
      "usea": 1973,
      "mielestani": 1974,
      "##hi": 1975,
      "17": 1976,
      "##ulun": 1977,
      "##utui": 1978,
      "uutta": 1979,
      "##lop": 1980,
      "##tur": 1981,
      "haasta": 1982,
      "##ottu": 1983,
      "tiista": 1984,
      "pil": 1985,
      "vahen": 1986,
      "*": 1987,
      "tyos": 1988,
      "tutki": 1989,
      "histo": 1990,
      "lapsi": 1991,
      "myohemmin": 1992,
      "vaka": 1993,
      "tehnyt": 1994,
      "luon": 1995,
      "toiminta": 1996,
      "ilme": 1997,
      "##utunut": 1998,
      "olemassa": 1999,
      "asiaa": 2000,
      "##teista": 2001,
      "tamper": 2002,
      "kysymy": 2003,
      "klo": 2004,
      "meni": 2005,
      "sunnunta": 2006,
      "kansainvalis": 2007,
      "kolman": 2008,
      "##nessa": 2009,
      "koulut": 2010,
      "##mer": 2011,
      "ihmisen": 2012,
      "##ry": 2013,
      "tilanne": 2014,
      "raamat": 2015,
      "##ety": 2016,
      "##voim": 2017,
      "##kista": 2018,
      "##uosi": 2019,
      "alkoi": 2020,
      "##utua": 2021,
      "mikaan": 2022,
      "toimii": 2023,
      "ww": 2024,
      "tulisi": 2025,
      "talous": 2026,
      "##vir": 2027,
      "hetkella": 2028,
      "vaikea": 2029,
      "jai": 2030,
      "muist": 2031,
      "tulevais": 2032,
      "kuka": 2033,
      "jy": 2034,
      "kaver": 2035,
      "##llinen": 2036,
      "lapi": 2037,
      "##eista": 2038,
      "joukko": 2039,
      "##pin": 2040,
      "##ps": 2041,
      "##kir": 2042,
      "ajo": 2043,
      "sellainen": 2044,
      "tus": 2045,
      "uusia": 2046,
      "tyot": 2047,
      "##urin": 2048,
      "##utun": 2049,
      "yrity": 2050,
      "myon": 2051,
      "pyr": 2052,
      "rahaa": 2053,
      "pieni": 2054,
      "+": 2055,
      "lento": 2056,
      "kehitta": 2057,
      "vuoti": 2058,
      "##teena": 2059,
      "om": 2060,
      "tyopa": 2061,
      "100": 2062,
      "jonkin": 2063,
      "onkin": 2064,
      "##isissa": 2065,
      "##illeen": 2066,
      "##est": 2067,
      "perh": 2068,
      "##puo": 2069,
      "##tys": 2070,
      "pera": 2071,
      "piti": 2072,
      "25": 2073,
      "ihmista": 2074,
      "melko": 2075,
      "ihmisten": 2076,
      "suoraan": 2077,
      "##ros": 2078,
      "pida": 2079,
      "=": 2080,
      "##empia": 2081,
      "##yta": 2082,
      "loyty": 2083,
      "kannatta": 2084,
      "##kari": 2085,
      "##vara": 2086,
      "##mies": 2087,
      "##lann": 2088,
      "##uuksia": 2089,
      "eriko": 2090,
      "yhtaan": 2091,
      "enka": 2092,
      "www": 2093,
      "hol": 2094,
      "maksaa": 2095,
      "ollaan": 2096,
      "pos": 2097,
      "naisten": 2098,
      "inter": 2099,
      "##kseni": 2100,
      "hanta": 2101,
      "suunnitel": 2102,
      "jalka": 2103,
      "##valle": 2104,
      "samaa": 2105,
      "inf": 2106,
      "jne": 2107,
      "kaks": 2108,
      "tee": 2109,
      "##kiel": 2110,
      "paran": 2111,
      "sijaan": 2112,
      "pysy": 2113,
      "vaki": 2114,
      "huoli": 2115,
      "##ustann": 2116,
      "tietysti": 2117,
      "##kse": 2118,
      "##ilija": 2119,
      "##euv": 2120,
      "paremmin": 2121,
      "##teeseen": 2122,
      "moni": 2123,
      "kad": 2124,
      "sain": 2125,
      "sielta": 2126,
      "##yyden": 2127,
      "##voima": 2128,
      "##ilun": 2129,
      "sana": 2130,
      "##inaan": 2131,
      "##koon": 2132,
      "##ok": 2133,
      "hu": 2134,
      "##imen": 2135,
      "##mon": 2136,
      "##tivat": 2137,
      "##uista": 2138,
      "perjantaina": 2139,
      "perusteella": 2140,
      "##teesta": 2141,
      "erityisesti": 2142,
      "jaan": 2143,
      "hava": 2144,
      "ymparisto": 2145,
      "ulos": 2146,
      "huoma": 2147,
      "eiko": 2148,
      "##ulo": 2149,
      "##dy": 2150,
      "oikeasti": 2151,
      "kerro": 2152,
      "##emen": 2153,
      "saata": 2154,
      "kesken": 2155,
      "##ellisesti": 2156,
      "##uksena": 2157,
      "##ikkaan": 2158,
      "z": 2159,
      "ruotsin": 2160,
      "sail": 2161,
      "##meen": 2162,
      "oppi": 2163,
      "synty": 2164,
      "##usto": 2165,
      "##uksiin": 2166,
      "vuosi": 2167,
      "naista": 2168,
      "##isille": 2169,
      "##ullis": 2170,
      "##opim": 2171,
      "##bo": 2172,
      "##emmis": 2173,
      "anta": 2174,
      "luku": 2175,
      "##rjaa": 2176,
      "ruu": 2177,
      "yha": 2178,
      "vaikuttaa": 2179,
      "hera": 2180,
      "puheenjohtaja": 2181,
      "mesta": 2182,
      "kone": 2183,
      "vaku": 2184,
      "##fi": 2185,
      "hot": 2186,
      "##maton": 2187,
      "lamp": 2188,
      "valtta": 2189,
      "##kesku": 2190,
      "##emmat": 2191,
      "##ikkona": 2192,
      "kaikille": 2193,
      "ihme": 2194,
      "monet": 2195,
      "##leen": 2196,
      "toisaa": 2197,
      "##ittele": 2198,
      "##teissa": 2199,
      "kons": 2200,
      "ris": 2201,
      "lahd": 2202,
      "##kinen": 2203,
      "elama": 2204,
      "di": 2205,
      "aj": 2206,
      "kaytto": 2207,
      "merkitta": 2208,
      "##udu": 2209,
      "saira": 2210,
      "asiat": 2211,
      "##netaan": 2212,
      "##eeksi": 2213,
      "ravin": 2214,
      "##kuuta": 2215,
      "##ero": 2216,
      "monta": 2217,
      "ehdo": 2218,
      "hake": 2219,
      ">": 2220,
      "sor": 2221,
      "##omet": 2222,
      "kav": 2223,
      "##pel": 2224,
      "hinta": 2225,
      "##neen": 2226,
      "##kina": 2227,
      "nopeasti": 2228,
      "pen": 2229,
      "##uksella": 2230,
      "##mas": 2231,
      "##villa": 2232,
      "##uksissa": 2233,
      "mitta": 2234,
      "##ollinen": 2235,
      "teho": 2236,
      "ongelma": 2237,
      "alla": 2238,
      "lapset": 2239,
      "aid": 2240,
      "##telin": 2241,
      "koir": 2242,
      "joilla": 2243,
      "##toin": 2244,
      "##tiet": 2245,
      "neljan": 2246,
      "##iki": 2247,
      "viran": 2248,
      "##ber": 2249,
      "soit": 2250,
      "kohda": 2251,
      "pet": 2252,
      "krist": 2253,
      "##itsee": 2254,
      "##mman": 2255,
      "alussa": 2256,
      "tamm": 2257,
      "##misessa": 2258,
      "##oston": 2259,
      "##ydessa": 2260,
      "nake": 2261,
      "##llista": 2262,
      "ainakaan": 2263,
      "##otti": 2264,
      "##kaupun": 2265,
      "kavi": 2266,
      "##net": 2267,
      "kaan": 2268,
      "##yytta": 2269,
      "kaikkien": 2270,
      "huono": 2271,
      "##hen": 2272,
      "##son": 2273,
      "##kal": 2274,
      "pir": 2275,
      "tuomi": 2276,
      "sun": 2277,
      "sata": 2278,
      "##elma": 2279,
      "ratkais": 2280,
      "poika": 2281,
      "eng": 2282,
      "##mattom": 2283,
      "aiku": 2284,
      "tyyty": 2285,
      "##ryh": 2286,
      "amer": 2287,
      "jokainen": 2288,
      "ssa": 2289,
      "luki": 2290,
      "##ustaja": 2291,
      "jaksa": 2292,
      "rakka": 2293,
      "tarkoitus": 2294,
      "kunta": 2295,
      "##ves": 2296,
      "varten": 2297,
      "ensimmaisen": 2298,
      "##vali": 2299,
      "vaiheessa": 2300,
      "##ukkaa": 2301,
      "paras": 2302,
      "##alla": 2303,
      "joista": 2304,
      "##hol": 2305,
      "kahd": 2306,
      "##tetta": 2307,
      "##rian": 2308,
      "toisaalta": 2309,
      "vide": 2310,
      "##udella": 2311,
      "au": 2312,
      "saav": 2313,
      "aiheutta": 2314,
      "ket": 2315,
      "luke": 2316,
      "##ustu": 2317,
      "ale": 2318,
      "##piir": 2319,
      "vuok": 2320,
      "##ukkaan": 2321,
      "parempi": 2322,
      "muutaman": 2323,
      "vet": 2324,
      "jatkaa": 2325,
      "##staa": 2326,
      "##ksissa": 2327,
      "##iky": 2328,
      "vaha": 2329,
      "kauppa": 2330,
      "avulla": 2331,
      "valmen": 2332,
      "hyvaks": 2333,
      "ca": 2334,
      "40": 2335,
      "peli": 2336,
      "kasvat": 2337,
      "##ehd": 2338,
      "mennessa": 2339,
      "##ohjel": 2340,
      "af": 2341,
      "sarja": 2342,
      "musta": 2343,
      "for": 2344,
      "##olta": 2345,
      "##ointi": 2346,
      "oon": 2347,
      "##hin": 2348,
      "todennako": 2349,
      "oy": 2350,
      "vuotia": 2351,
      "useita": 2352,
      "jalleen": 2353,
      "opetta": 2354,
      "turva": 2355,
      "ihmet": 2356,
      "paha": 2357,
      "##keskus": 2358,
      "##itella": 2359,
      "nak": 2360,
      "tutkimus": 2361,
      "##vainen": 2362,
      "##ca": 2363,
      "tapauksessa": 2364,
      "joukkue": 2365,
      "vaikutta": 2366,
      "isra": 2367,
      "opiskeli": 2368,
      "tuotan": 2369,
      "##iken": 2370,
      "torstaina": 2371,
      "kana": 2372,
      "kaikkea": 2373,
      "##kuin": 2374,
      "leh": 2375,
      "auton": 2376,
      "##puh": 2377,
      "onneksi": 2378,
      "##nat": 2379,
      "##rien": 2380,
      "st": 2381,
      "aset": 2382,
      "##ula": 2383,
      "onnist": 2384,
      "##ynti": 2385,
      "kuule": 2386,
      "emme": 2387,
      "tuotte": 2388,
      "maanantaina": 2389,
      "nope": 2390,
      "##tie": 2391,
      "##paivan": 2392,
      "lauantaina": 2393,
      "jan": 2394,
      "valtio": 2395,
      "##vani": 2396,
      "##kalla": 2397,
      "kyseessa": 2398,
      "##koa": 2399,
      "tehdaan": 2400,
      "tuotta": 2401,
      "muuto": 2402,
      "kauden": 2403,
      "onnistu": 2404,
      "x": 2405,
      "ns": 2406,
      "meille": 2407,
      "puolue": 2408,
      "saar": 2409,
      "vaar": 2410,
      "kolm": 2411,
      "htt": 2412,
      "aar": 2413,
      "totta": 2414,
      "jonkun": 2415,
      "jarjesta": 2416,
      "yo": 2417,
      "valmista": 2418,
      "pitkaan": 2419,
      "sinulle": 2420,
      "puolesta": 2421,
      "##uudet": 2422,
      "viikonlop": 2423,
      "huolimatta": 2424,
      "##etun": 2425,
      "##py": 2426,
      "laittaa": 2427,
      "##teeksi": 2428,
      "tosiaan": 2429,
      "ab": 2430,
      "keskiviikkona": 2431,
      "lopulta": 2432,
      "viranoma": 2433,
      "##tuo": 2434,
      "##jasta": 2435,
      "vaikut": 2436,
      "##kua": 2437,
      "keske": 2438,
      "jotenkin": 2439,
      "johd": 2440,
      "##ge": 2441,
      "yhteydessa": 2442,
      "miesten": 2443,
      "viikolla": 2444,
      "up": 2445,
      "##yhte": 2446,
      "sairaa": 2447,
      "##otus": 2448,
      "yhdysvaltain": 2449,
      "tiistaina": 2450,
      "minusta": 2451,
      "tekn": 2452,
      "##mark": 2453,
      "kokonais": 2454,
      "varsinkin": 2455,
      "##itin": 2456,
      "helposti": 2457,
      "terveys": 2458,
      "palsta": 2459,
      "kuv": 2460,
      "##pallo": 2461,
      "##jista": 2462,
      "bi": 2463,
      "##tista": 2464,
      "kaynn": 2465,
      "##jaksi": 2466,
      "huh": 2467,
      "##pas": 2468,
      "kisa": 2469,
      "##mansa": 2470,
      "kein": 2471,
      "##ron": 2472,
      "toimitus": 2473,
      "isa": 2474,
      "##tissa": 2475,
      "tanne": 2476,
      "laus": 2477,
      "pian": 2478,
      "syyt": 2479,
      "##bi": 2480,
      "##ettom": 2481,
      "oo": 2482,
      "sille": 2483,
      "ves": 2484,
      "toimitta": 2485,
      "kuvaa": 2486,
      "hanet": 2487,
      "##tunti": 2488,
      "miljar": 2489,
      "tapaa": 2490,
      "tahansa": 2491,
      "##nossa": 2492,
      "ilmeisesti": 2493,
      "paivana": 2494,
      "ch": 2495,
      "##tena": 2496,
      "jossain": 2497,
      "##lasta": 2498,
      "alueella": 2499,
      "##inan": 2500,
      "##ill": 2501,
      "tuota": 2502,
      "##konen": 2503,
      "paikallis": 2504,
      "kymmenen": 2505,
      "##kissa": 2506,
      "muutama": 2507,
      "##isko": 2508,
      "vuotias": 2509,
      "##ralla": 2510,
      "tien": 2511,
      "##telua": 2512,
      "##itetty": 2513,
      "saat": 2514,
      "kamp": 2515,
      "samaan": 2516,
      "##uteen": 2517,
      "hyvan": 2518,
      "##ympia": 2519,
      "##visi": 2520,
      "##skan": 2521,
      "naytta": 2522,
      "##ville": 2523,
      "##inais": 2524,
      "##tot": 2525,
      "paatos": 2526,
      "nykyaan": 2527,
      "taloud": 2528,
      "kauh": 2529,
      "eihan": 2530,
      "##tor": 2531,
      "##ilee": 2532,
      "aiti": 2533,
      "##raken": 2534,
      "##tteja": 2535,
      "bo": 2536,
      "menesty": 2537,
      "##laito": 2538,
      "tv": 2539,
      "kysymys": 2540,
      "##ivo": 2541,
      "puna": 2542,
      "##uilla": 2543,
      "kayttoon": 2544,
      "uudelleen": 2545,
      "selvasti": 2546,
      "liikke": 2547,
      "vahemman": 2548,
      "kans": 2549,
      "sotila": 2550,
      "lie": 2551,
      "lahinna": 2552,
      "myota": 2553,
      "valko": 2554,
      "##isilla": 2555,
      "turha": 2556,
      "##pid": 2557,
      "omat": 2558,
      "saann": 2559,
      "elin": 2560,
      "sellaista": 2561,
      "sunnuntaina": 2562,
      "kerta": 2563,
      "kera": 2564,
      "##puolella": 2565,
      "viestin": 2566,
      "yla": 2567,
      "pyor": 2568,
      "kokon": 2569,
      "##reita": 2570,
      "tyota": 2571,
      "##har": 2572,
      "lei": 2573,
      "http": 2574,
      "##jetta": 2575,
      "##kayt": 2576,
      "ost": 2577,
      "sav": 2578,
      "mikali": 2579,
      "pysa": 2580,
      "takana": 2581,
      "eilen": 2582,
      "saavat": 2583,
      "blog": 2584,
      "seitse": 2585,
      "poliitt": 2586,
      "##eriaa": 2587,
      "##itetaan": 2588,
      "jot": 2589,
      "korke": 2590,
      "hin": 2591,
      "##laisuus": 2592,
      "kolmen": 2593,
      "anna": 2594,
      "##kkeen": 2595,
      "##uss": 2596,
      "tarkea": 2597,
      "viisi": 2598,
      "paivaa": 2599,
      "kasin": 2600,
      "nimen": 2601,
      "##taminen": 2602,
      "##mar": 2603,
      "vars": 2604,
      "kuts": 2605,
      "ota": 2606,
      "mit": 2607,
      "kotiin": 2608,
      "##ineen": 2609,
      "oleva": 2610,
      "toi": 2611,
      "kello": 2612,
      "tekemaan": 2613,
      "##ustaa": 2614,
      "rahoit": 2615,
      "ollen": 2616,
      "##istuksen": 2617,
      "kiitos": 2618,
      "loppuun": 2619,
      "alusta": 2620,
      "itsell": 2621,
      "auttaa": 2622,
      "kehitys": 2623,
      "hair": 2624,
      "silta": 2625,
      "lahti": 2626,
      "verkko": 2627,
      "paatta": 2628,
      "##htaa": 2629,
      "siten": 2630,
      "lehd": 2631,
      "kri": 2632,
      "riittaa": 2633,
      "ren": 2634,
      "nahda": 2635,
      "##emok": 2636,
      "osallistu": 2637,
      "kohtaa": 2638,
      "##rea": 2639,
      "verta": 2640,
      "puhel": 2641,
      "##mit": 2642,
      "hanelle": 2643,
      "kilomet": 2644,
      "##aalis": 2645,
      "##ittely": 2646,
      "olj": 2647,
      "##ukan": 2648,
      "##hl": 2649,
      "em": 2650,
      "naiset": 2651,
      "ulkoma": 2652,
      "menet": 2653,
      "yksinkerta": 2654,
      "##mea": 2655,
      "jarjestel": 2656,
      "pohja": 2657,
      "##ikkoja": 2658,
      "korva": 2659,
      "kokonaan": 2660,
      "suomeen": 2661,
      "edell": 2662,
      "##co": 2663,
      "taj": 2664,
      "alan": 2665,
      "ts": 2666,
      "##rv": 2667,
      "tayd": 2668,
      "joul": 2669,
      "tap": 2670,
      "##ollisuus": 2671,
      "yk": 2672,
      "naut": 2673,
      "joulu": 2674,
      "hyvaksy": 2675,
      "##oida": 2676,
      "##tal": 2677,
      "##nasta": 2678,
      "tyosken": 2679,
      "suunnittel": 2680,
      "##koja": 2681,
      "toivotta": 2682,
      "syksy": 2683,
      "koira": 2684,
      "kalli": 2685,
      "##tiiv": 2686,
      "toimia": 2687,
      "##itu": 2688,
      "tuossa": 2689,
      "saadaan": 2690,
      "kayda": 2691,
      "##iso": 2692,
      "kustann": 2693,
      "##iska": 2694,
      "##uda": 2695,
      "##tinen": 2696,
      "edellis": 2697,
      "##kinta": 2698,
      "muutta": 2699,
      "olympia": 2700,
      "samoin": 2701,
      "suhteen": 2702,
      "##uli": 2703,
      "valmi": 2704,
      "amp": 2705,
      "kohti": 2706,
      "##udessa": 2707,
      "##kirja": 2708,
      "kauan": 2709,
      "##televat": 2710,
      "aikais": 2711,
      "res": 2712,
      "kotona": 2713,
      "yrittaa": 2714,
      "odo": 2715,
      "liike": 2716,
      "naisen": 2717,
      "##keja": 2718,
      "kiinnosta": 2719,
      "opiskel": 2720,
      "##kusta": 2721,
      "poliisin": 2722,
      "##hun": 2723,
      "ravinto": 2724,
      "mielenkiin": 2725,
      "myo": 2726,
      "olemaan": 2727,
      "ostaa": 2728,
      "tulos": 2729,
      "paasee": 2730,
      "syyta": 2731,
      "media": 2732,
      "ga": 2733,
      "##onsa": 2734,
      "22": 2735,
      "##eminen": 2736,
      "puolustus": 2737,
      "huomatta": 2738,
      "##jarjestel": 2739,
      "suor": 2740,
      "hyvia": 2741,
      "##ora": 2742,
      "kohtaan": 2743,
      "todellis": 2744,
      "saisi": 2745,
      "avi": 2746,
      "uk": 2747,
      "syys": 2748,
      "##ila": 2749,
      "lahella": 2750,
      "lisaan": 2751,
      "liitto": 2752,
      "itsensa": 2753,
      "##koul": 2754,
      "mor": 2755,
      "##ii": 2756,
      "kirkko": 2757,
      "pul": 2758,
      "joko": 2759,
      "luonnon": 2760,
      "kara": 2761,
      "##ly": 2762,
      "##par": 2763,
      "konser": 2764,
      "tarkoittaa": 2765,
      "60": 2766,
      "prof": 2767,
      "ainoastaan": 2768,
      "venaja": 2769,
      "sol": 2770,
      "##telun": 2771,
      "##uto": 2772,
      "##kot": 2773,
      "##essi": 2774,
      "##kie": 2775,
      "##tuus": 2776,
      "sat": 2777,
      "24": 2778,
      "rek": 2779,
      "huomaa": 2780,
      "mootto": 2781,
      "miehet": 2782,
      "##passa": 2783,
      "tytto": 2784,
      "co": 2785,
      "apua": 2786,
      "virka": 2787,
      "perusta": 2788,
      "pis": 2789,
      "kahde": 2790,
      "##telussa": 2791,
      "loyd": 2792,
      "21": 2793,
      "sinulla": 2794,
      "luov": 2795,
      "heng": 2796,
      "mieleen": 2797,
      "eniten": 2798,
      "##rs": 2799,
      "melkein": 2800,
      "euron": 2801,
      "ymmartaa": 2802,
      "##esin": 2803,
      "]": 2804,
      "q": 2805,
      "luvun": 2806,
      "##lamen": 2807,
      "ohja": 2808,
      "vin": 2809,
      "##eissa": 2810,
      "korja": 2811,
      "internet": 2812,
      "##paika": 2813,
      "keskustelu": 2814,
      "tuskin": 2815,
      "vali": 2816,
      "tulevat": 2817,
      "haus": 2818,
      "##ittamaan": 2819,
      "##ikkia": 2820,
      "##eraa": 2821,
      "ongelmia": 2822,
      "koulu": 2823,
      "lansi": 2824,
      "##lain": 2825,
      "##llikko": 2826,
      "kannalta": 2827,
      "illa": 2828,
      "##all": 2829,
      "talv": 2830,
      "viiden": 2831,
      "yhdisty": 2832,
      "[": 2833,
      "lapsia": 2834,
      "oikeuden": 2835,
      "lamm": 2836,
      "tunne": 2837,
      "##uuta": 2838,
      "inn": 2839,
      "puolestaan": 2840,
      "kansallis": 2841,
      "##itte": 2842,
      "jostain": 2843,
      "kiva": 2844,
      "##att": 2845,
      "##tos": 2846,
      "maassa": 2847,
      "asiantunti": 2848,
      "lyhy": 2849,
      "arvos": 2850,
      "##istossa": 2851,
      "tapahtuu": 2852,
      "vale": 2853,
      "vaarin": 2854,
      "kehitty": 2855,
      "toivottavasti": 2856,
      "paitsi": 2857,
      "otti": 2858,
      "##joja": 2859,
      "##oinen": 2860,
      "##pur": 2861,
      "yhteensa": 2862,
      "voitto": 2863,
      "ex": 2864,
      "##toista": 2865,
      "kova": 2866,
      "##uussa": 2867,
      "nousi": 2868,
      "tall": 2869,
      "pud": 2870,
      "tuol": 2871,
      "jotkut": 2872,
      "valin": 2873,
      "kiinnos": 2874,
      "heita": 2875,
      "ajatu": 2876,
      "toivo": 2877,
      "##ilin": 2878,
      "##ksin": 2879,
      "voitti": 2880,
      "ranska": 2881,
      "riippu": 2882,
      "molemmat": 2883,
      "tiedan": 2884,
      "edessa": 2885,
      "##istetta": 2886,
      "lahet": 2887,
      "vaatii": 2888,
      "naiden": 2889,
      "##huol": 2890,
      "sinua": 2891,
      "##koko": 2892,
      "liikku": 2893,
      "haastat": 2894,
      "##oille": 2895,
      "autta": 2896,
      "##maki": 2897,
      "##malle": 2898,
      "##emmisto": 2899,
      "##evat": 2900,
      "olisin": 2901,
      "keskitty": 2902,
      "##pea": 2903,
      "maarit": 2904,
      "tahd": 2905,
      "tieta": 2906,
      "myoskaan": 2907,
      "lahtee": 2908,
      "johto": 2909,
      "hei": 2910,
      "esimerk": 2911,
      "##telut": 2912,
      "liikaa": 2913,
      "tay": 2914,
      "kre": 2915,
      "aamu": 2916,
      "kielta": 2917,
      "##ily": 2918,
      "##luo": 2919,
      "tietenkin": 2920,
      "pienen": 2921,
      "ydin": 2922,
      "kokoom": 2923,
      "paalla": 2924,
      "paaministeri": 2925,
      "ruots": 2926,
      "laske": 2927,
      "aktiiv": 2928,
      "lahtea": 2929,
      "##uttua": 2930,
      "sanon": 2931,
      "lahto": 2932,
      "karsi": 2933,
      "sisalla": 2934,
      "##muka": 2935,
      "tein": 2936,
      "palkin": 2937,
      "##ketta": 2938,
      "##allinen": 2939,
      "mahdollisuus": 2940,
      "##tisi": 2941,
      "perinte": 2942,
      "##rassa": 2943,
      "kaupunki": 2944,
      "##ytty": 2945,
      "espan": 2946,
      "kaytannossa": 2947,
      "##yks": 2948,
      "##isuutta": 2949,
      "##anin": 2950,
      "loytaa": 2951,
      "rajoit": 2952,
      "##sien": 2953,
      "kuun": 2954,
      "asiassa": 2955,
      "kiinte": 2956,
      "kirjoittaa": 2957,
      "tarvitaan": 2958,
      "jatka": 2959,
      "##enkaan": 2960,
      "hiih": 2961,
      "omia": 2962,
      "##kone": 2963,
      "jann": 2964,
      "laj": 2965,
      "palvelu": 2966,
      "voinut": 2967,
      "maaraa": 2968,
      "missaan": 2969,
      "kulutta": 2970,
      "pekka": 2971,
      "poik": 2972,
      "turun": 2973,
      "##nen": 2974,
      "lupa": 2975,
      "##gi": 2976,
      "kirjoitta": 2977,
      "matti": 2978,
      "##essani": 2979,
      "jatta": 2980,
      "radi": 2981,
      "jouk": 2982,
      "poikke": 2983,
      "##uti": 2984,
      "ad": 2985,
      "##ikymmen": 2986,
      "hanella": 2987,
      "##politi": 2988,
      "viesti": 2989,
      "##oton": 2990,
      "ilmi": 2991,
      "syysta": 2992,
      "asioista": 2993,
      "tele": 2994,
      "turvallisuus": 2995,
      "the": 2996,
      "##kansa": 2997,
      "luotta": 2998,
      "vero": 2999,
      "sp": 3000,
      "pes": 3001,
      "##ny": 3002,
      "##vallan": 3003,
      "kasva": 3004,
      "##omaan": 3005,
      "onhan": 3006,
      "paper": 3007,
      "&": 3008,
      "joutuu": 3009,
      "tarvitta": 3010,
      "muutenkin": 3011,
      "tilaa": 3012,
      "jeesus": 3013,
      "##ssin": 3014,
      "elaa": 3015,
      "uni": 3016,
      "##muut": 3017,
      "##ali": 3018,
      "ros": 3019,
      "aloitta": 3020,
      "##lannin": 3021,
      "energia": 3022,
      "kunni": 3023,
      "yhtion": 3024,
      "vaale": 3025,
      "maali": 3026,
      "ly": 3027,
      "##lissa": 3028,
      "varsina": 3029,
      "##tuneet": 3030,
      "paassa": 3031,
      "vahintaan": 3032,
      "loukkaan": 3033,
      "historia": 3034,
      "jalj": 3035,
      "saatu": 3036,
      "helppo": 3037,
      "##oitu": 3038,
      "sala": 3039,
      "##istan": 3040,
      "omasta": 3041,
      "tava": 3042,
      "hev": 3043,
      "##ek": 3044,
      "saatta": 3045,
      "##liiton": 3046,
      "helsingissa": 3047,
      "kertoa": 3048,
      "elamaa": 3049,
      "kilpailu": 3050,
      "##imia": 3051,
      "##impia": 3052,
      "elain": 3053,
      "##utuvat": 3054,
      "eteenpain": 3055,
      "tausta": 3056,
      "ottelun": 3057,
      "##imet": 3058,
      "##kau": 3059,
      "kate": 3060,
      "alkan": 3061,
      "alueen": 3062,
      "luk": 3063,
      "kannata": 3064,
      "tyottom": 3065,
      "tuke": 3066,
      "takaa": 3067,
      "23": 3068,
      "hoid": 3069,
      "##yhtio": 3070,
      "johtaja": 3071,
      "viih": 3072,
      "##rissa": 3073,
      "olisivat": 3074,
      "saksan": 3075,
      "asiakka": 3076,
      "hyokka": 3077,
      "nosta": 3078,
      "hyod": 3079,
      "jaakie": 3080,
      "ton": 3081,
      "vanhan": 3082,
      "vuoro": 3083,
      "alkupera": 3084,
      "kaynyt": 3085,
      "vastusta": 3086,
      "##ussi": 3087,
      "##telen": 3088,
      "yliopisto": 3089,
      "rah": 3090,
      "at": 3091,
      "ansi": 3092,
      "itsena": 3093,
      "jun": 3094,
      "kuukauden": 3095,
      "##kilpail": 3096,
      "mennyt": 3097,
      "##kassa": 3098,
      "##kenut": 3099,
      "laajen": 3100,
      "jattaa": 3101,
      "rakenta": 3102,
      "suomalainen": 3103,
      "##her": 3104,
      "##iku": 3105,
      "huipp": 3106,
      "##emm": 3107,
      "rakennus": 3108,
      "laad": 3109,
      "puolella": 3110,
      "ira": 3111,
      "sisaan": 3112,
      "nuorten": 3113,
      "ju": 3114,
      "##isiko": 3115,
      "asen": 3116,
      "##sel": 3117,
      "arme": 3118,
      "##tuun": 3119,
      "##lehti": 3120,
      "toita": 3121,
      "ru": 3122,
      "##utettu": 3123,
      "virhe": 3124,
      "tavallis": 3125,
      "##yksen": 3126,
      "hur": 3127,
      "##ilua": 3128,
      "yksil": 3129,
      "..": 3130,
      "...": 3131,
      "ero": 3132,
      "liikenne": 3133,
      "##saan": 3134,
      "##kasti": 3135,
      "loma": 3136,
      "##ope": 3137,
      "ohjaa": 3138,
      "##kunnassa": 3139,
      "amerikka": 3140,
      "##seen": 3141,
      "karsin": 3142,
      "##tut": 3143,
      "pitanyt": 3144,
      "ohj": 3145,
      "valttamatta": 3146,
      "vuodessa": 3147,
      "kysel": 3148,
      "##pita": 3149,
      "##oikeus": 3150,
      "erilaisia": 3151,
      "##paikka": 3152,
      "muistaa": 3153,
      "odottaa": 3154,
      "etenkin": 3155,
      "parlamen": 3156,
      "suomalaiset": 3157,
      "kunto": 3158,
      "##kis": 3159,
      "valita": 3160,
      "keskusta": 3161,
      "##itiiv": 3162,
      "198": 3163,
      "perheen": 3164,
      "nimi": 3165,
      "kierro": 3166,
      "nais": 3167,
      "ura": 3168,
      "valis": 3169,
      "##emaan": 3170,
      "milloin": 3171,
      "lahe": 3172,
      "suorit": 3173,
      "helpo": 3174,
      "ilmoitta": 3175,
      "sosiaali": 3176,
      "##ppia": 3177,
      "opetus": 3178,
      "reh": 3179,
      "500": 3180,
      "80": 3181,
      "osuus": 3182,
      "viik": 3183,
      "##maatt": 3184,
      "##puolis": 3185,
      "toisin": 3186,
      "tais": 3187,
      "itseaan": 3188,
      "lle": 3189,
      "mik": 3190,
      "vesi": 3191,
      "@": 3192,
      "tilasto": 3193,
      "piste": 3194,
      "onnettom": 3195,
      "seitseman": 3196,
      "yllatta": 3197,
      "tampere": 3198,
      "ser": 3199,
      "palkka": 3200,
      "##gas": 3201,
      "##joista": 3202,
      "##ytti": 3203,
      "karja": 3204,
      "asiakas": 3205,
      "omaan": 3206,
      "hyvat": 3207,
      "##nes": 3208,
      "##toihin": 3209,
      "presidentin": 3210,
      "tuntia": 3211,
      "##udesta": 3212,
      "osalta": 3213,
      "niihin": 3214,
      "ikina": 3215,
      "##vina": 3216,
      "uhka": 3217,
      "suk": 3218,
      "##dassa": 3219,
      "elamaan": 3220,
      "##udun": 3221,
      "aiheuttaa": 3222,
      "tarkeaa": 3223,
      "siirty": 3224,
      "tutkin": 3225,
      "proje": 3226,
      "##lien": 3227,
      "ohi": 3228,
      "puolet": 3229,
      "##hallit": 3230,
      "##poli": 3231,
      "nakyy": 3232,
      "ymmarra": 3233,
      "verrat": 3234,
      "jatkuu": 3235,
      "kaytetaan": 3236,
      "##ittiin": 3237,
      "palja": 3238,
      "laki": 3239,
      "##hallin": 3240,
      "pelkasta": 3241,
      "##joille": 3242,
      "parin": 3243,
      "kunnan": 3244,
      "politi": 3245,
      "##riin": 3246,
      "saakka": 3247,
      "toiseen": 3248,
      "ulkona": 3249,
      "##ettavasti": 3250,
      "suuntaan": 3251,
      "johtaa": 3252,
      "hirv": 3253,
      "##ksien": 3254,
      "viet": 3255,
      "tuki": 3256,
      "tappi": 3257,
      "##nus": 3258,
      "liha": 3259,
      "aloittaa": 3260,
      "verrattuna": 3261,
      "ban": 3262,
      "valti": 3263,
      "toissa": 3264,
      "yhtio": 3265,
      "kaytossa": 3266,
      "##ger": 3267,
      "kuoli": 3268,
      "kirjan": 3269,
      "com": 3270,
      "periaa": 3271,
      "miesta": 3272,
      "terveyden": 3273,
      "##ste": 3274,
      "##innat": 3275,
      "70": 3276,
      "##etut": 3277,
      "##kkaasti": 3278,
      "kanta": 3279,
      "##raha": 3280,
      "istu": 3281,
      "##gh": 3282,
      "henkilokohta": 3283,
      "olo": 3284,
      "##umer": 3285,
      "vaihtoehto": 3286,
      "suhta": 3287,
      "ym": 3288,
      "asunn": 3289,
      "lih": 3290,
      "torj": 3291,
      "##ban": 3292,
      "heina": 3293,
      "##ostu": 3294,
      "naur": 3295,
      "##olan": 3296,
      "tuom": 3297,
      "kavel": 3298,
      "lehti": 3299,
      "valitta": 3300,
      "##katu": 3301,
      "##sut": 3302,
      "kem": 3303,
      "runsaa": 3304,
      "kohdalla": 3305,
      "tulossa": 3306,
      "##ellen": 3307,
      "valia": 3308,
      "##alue": 3309,
      "potila": 3310,
      "tarjoa": 3311,
      "viikkoa": 3312,
      "britan": 3313,
      "hor": 3314,
      "rauhan": 3315,
      "##put": 3316,
      "##let": 3317,
      "kunnossa": 3318,
      "##maksi": 3319,
      "kappa": 3320,
      "tukea": 3321,
      "kasvaa": 3322,
      "sd": 3323,
      "tarpeeksi": 3324,
      "vuodesta": 3325,
      "haluat": 3326,
      "lukea": 3327,
      "kokoon": 3328,
      "esitta": 3329,
      "##ottiin": 3330,
      "koulutus": 3331,
      "laina": 3332,
      "##ettya": 3333,
      "##loissa": 3334,
      "##vira": 3335,
      "aurin": 3336,
      "jokin": 3337,
      "##eltaan": 3338,
      "##ministerion": 3339,
      "auki": 3340,
      "hav": 3341,
      "bar": 3342,
      "##istin": 3343,
      "maalis": 3344,
      "##ytys": 3345,
      "##mesta": 3346,
      "mestar": 3347,
      "toisella": 3348,
      "rapor": 3349,
      "##ler": 3350,
      "##lue": 3351,
      "nukku": 3352,
      "tra": 3353,
      "sota": 3354,
      "vaatte": 3355,
      "mahdollisimman": 3356,
      "ist": 3357,
      "kestaa": 3358,
      "taitaa": 3359,
      "##ollisuuden": 3360,
      "pelin": 3361,
      "mulle": 3362,
      "aamulla": 3363,
      "joo": 3364,
      "new": 3365,
      "##isuuden": 3366,
      "luvulla": 3367,
      "##ittelee": 3368,
      "##laisille": 3369,
      "##ellisia": 3370,
      "##empaan": 3371,
      "lahtien": 3372,
      "jyvas": 3373,
      "noita": 3374,
      "ahd": 3375,
      "hyvinvoin": 3376,
      "itsekin": 3377,
      "huomioon": 3378,
      "pelkastaan": 3379,
      "synnyt": 3380,
      "raska": 3381,
      "tyonanta": 3382,
      "paakaupun": 3383,
      "laaka": 3384,
      "##lanti": 3385,
      "ylos": 3386,
      "todennakoisesti": 3387,
      "##kanen": 3388,
      "##paikan": 3389,
      "eipa": 3390,
      "tuosta": 3391,
      "##tapa": 3392,
      "kulu": 3393,
      "teidan": 3394,
      "##gr": 3395,
      "antti": 3396,
      "sekin": 3397,
      "heille": 3398,
      "pot": 3399,
      "mitenkaan": 3400,
      "##kier": 3401,
      "voita": 3402,
      "##ettavissa": 3403,
      "toimintaa": 3404,
      "parhaa": 3405,
      "tavoitteena": 3406,
      "muualla": 3407,
      "sm": 3408,
      "johan": 3409,
      "##kauden": 3410,
      "##go": 3411,
      "elle": 3412,
      "ollenkaan": 3413,
      "maalin": 3414,
      "aine": 3415,
      "etsi": 3416,
      "monen": 3417,
      "##tilla": 3418,
      "treen": 3419,
      "kuljetta": 3420,
      "jyvasky": 3421,
      "##kast": 3422,
      "##palvelu": 3423,
      "paikalla": 3424,
      "vaim": 3425,
      "ruotsa": 3426,
      "psy": 3427,
      "touko": 3428,
      "niissa": 3429,
      "##mik": 3430,
      "usa": 3431,
      "asunto": 3432,
      "jatkossa": 3433,
      "totesi": 3434,
      "##kkin": 3435,
      "vahing": 3436,
      "##liitto": 3437,
      "haluan": 3438,
      "##seja": 3439,
      "##50": 3440,
      "roh": 3441,
      "rikos": 3442,
      "opin": 3443,
      "##udet": 3444,
      "##yhd": 3445,
      "vuosina": 3446,
      "##ynna": 3447,
      "##uttiin": 3448,
      "selkea": 3449,
      "pika": 3450,
      "tuntu": 3451,
      "tupa": 3452,
      "tunnin": 3453,
      "aih": 3454,
      "hyvaksi": 3455,
      "myoha": 3456,
      "vuor": 3457,
      "##valmen": 3458,
      "osan": 3459,
      "ajaa": 3460,
      "##osia": 3461,
      "sahkop": 3462,
      "meita": 3463,
      "##vaik": 3464,
      "aly": 3465,
      "##jassa": 3466,
      "##jun": 3467,
      "##ollisesti": 3468,
      "oikeastaan": 3469,
      "##hy": 3470,
      "##lun": 3471,
      "kaudella": 3472,
      "krit": 3473,
      "win": 3474,
      "##peli": 3475,
      "lien": 3476,
      "lista": 3477,
      "jaks": 3478,
      "hoito": 3479,
      "kunnes": 3480,
      "##isyys": 3481,
      "kirkon": 3482,
      "##sar": 3483,
      "##joa": 3484,
      "rakasta": 3485,
      "ennakko": 3486,
      "jen": 3487,
      "##reiden": 3488,
      "alas": 3489,
      "##ikos": 3490,
      "im": 3491,
      "homma": 3492,
      "mukaansa": 3493,
      "ajatel": 3494,
      "leikka": 3495,
      "seko": 3496,
      "nur": 3497,
      "ympari": 3498,
      "riita": 3499,
      "talon": 3500,
      "##maail": 3501,
      "##mu": 3502,
      "toimitusjohtaja": 3503,
      "muuttaa": 3504,
      "jatkuvasti": 3505,
      "bud": 3506,
      "##vuus": 3507,
      "kata": 3508,
      "henkiloa": 3509,
      "loka": 3510,
      "positiiv": 3511,
      "hameen": 3512,
      "##nalla": 3513,
      "rekister": 3514,
      "##ttien": 3515,
      "##empien": 3516,
      "nakee": 3517,
      "kiih": 3518,
      "ikaan": 3519,
      "##tella": 3520,
      "##eilla": 3521,
      "##valin": 3522,
      "neuvottelu": 3523,
      "hul": 3524,
      "ihana": 3525,
      "##sio": 3526,
      "kuusi": 3527,
      "##vaal": 3528,
      "anteeksi": 3529,
      "##pun": 3530,
      "##tani": 3531,
      "paass": 3532,
      "##ihte": 3533,
      "ps": 3534,
      "##usin": 3535,
      "##oksen": 3536,
      "ara": 3537,
      "uudet": 3538,
      "aikaisemmin": 3539,
      "super": 3540,
      "ryhma": 3541,
      "##iman": 3542,
      "##elaa": 3543,
      "##pr": 3544,
      "arti": 3545,
      "kansaned": 3546,
      "##paiv": 3547,
      "lopussa": 3548,
      "pidetaan": 3549,
      "##paallikko": 3550,
      "##johtajan": 3551,
      "avaus": 3552,
      "yliopiston": 3553,
      "paatoksen": 3554,
      "pih": 3555,
      "##mmun": 3556,
      "##yhti": 3557,
      "lon": 3558,
      "##tuja": 3559,
      "sarjan": 3560,
      "kuopi": 3561,
      "ketaan": 3562,
      "mietti": 3563,
      "kuvan": 3564,
      "##elia": 3565,
      "##annetta": 3566,
      "##muksen": 3567,
      "90": 3568,
      "eurooppa": 3569,
      "ohjelma": 3570,
      "kantaa": 3571,
      "##hto": 3572,
      "herk": 3573,
      "car": 3574,
      "kaupan": 3575,
      "vaihd": 3576,
      "##ens": 3577,
      "##isterin": 3578,
      "dolla": 3579,
      "ottelu": 3580,
      "nimittain": 3581,
      "##neuv": 3582,
      "osoitta": 3583,
      "ukra": 3584,
      "hoitaa": 3585,
      "toiminnan": 3586,
      "pakka": 3587,
      "kie": 3588,
      "nouda": 3589,
      "jaanyt": 3590,
      "jeesuksen": 3591,
      "selvi": 3592,
      "huomattavasti": 3593,
      "netti": 3594,
      "ide": 3595,
      "monia": 3596,
      "kahdeksan": 3597,
      "ykkos": 3598,
      "##ivi": 3599,
      "tietty": 3600,
      "##kkeja": 3601,
      "toteaa": 3602,
      "sivu": 3603,
      "##kur": 3604,
      "sijaitse": 3605,
      "tuk": 3606,
      "syda": 3607,
      "ministeri": 3608,
      "##lani": 3609,
      "##markkin": 3610,
      "lahi": 3611,
      "vastuu": 3612,
      "ilmoitti": 3613,
      "minut": 3614,
      "##ikot": 3615,
      "tait": 3616,
      "laaja": 3617,
      "##joukkue": 3618,
      "ensimmaista": 3619,
      "sopimus": 3620,
      "nay": 3621,
      "##killa": 3622,
      "##imisto": 3623,
      "fin": 3624,
      "finaa": 3625,
      "asiaan": 3626,
      "paasi": 3627,
      "##kata": 3628,
      "era": 3629,
      "##utuksen": 3630,
      "##aali": 3631,
      "kuvat": 3632,
      "lla": 3633,
      "##musta": 3634,
      "aanesta": 3635,
      "##pat": 3636,
      "jolle": 3637,
      "##alan": 3638,
      "##uone": 3639,
      "##istys": 3640,
      "vuokra": 3641,
      "##berg": 3642,
      "dia": 3643,
      "levy": 3644,
      "puolen": 3645,
      "pers": 3646,
      "vaikkapa": 3647,
      "##ettaisiin": 3648,
      "elinta": 3649,
      "hilja": 3650,
      "##nu": 3651,
      "kasit": 3652,
      "marras": 3653,
      "pelastus": 3654,
      "esiinty": 3655,
      "sellaisia": 3656,
      "tiedon": 3657,
      "sito": 3658,
      "mah": 3659,
      "fil": 3660,
      "isla": 3661,
      "kunnon": 3662,
      "kim": 3663,
      "##keskuksen": 3664,
      "kumma": 3665,
      "taistel": 3666,
      "avoim": 3667,
      "vuoteen": 3668,
      "rea": 3669,
      "itselleen": 3670,
      "tehtava": 3671,
      "tarpe": 3672,
      "##inin": 3673,
      "lasta": 3674,
      "eroa": 3675,
      "paattaa": 3676,
      "suomalaisten": 3677,
      "##ukut": 3678,
      "##yste": 3679,
      "ved": 3680,
      "##inti": 3681,
      "maiden": 3682,
      "testa": 3683,
      "huomen": 3684,
      "##stu": 3685,
      "tampereen": 3686,
      "##anen": 3687,
      "etten": 3688,
      "yhteytta": 3689,
      "yhde": 3690,
      "eduskunta": 3691,
      "huhti": 3692,
      "##wa": 3693,
      "olette": 3694,
      "ranga": 3695,
      "tietoja": 3696,
      "rauta": 3697,
      "uskoo": 3698,
      "julkais": 3699,
      "tehtiin": 3700,
      "millaan": 3701,
      "ellei": 3702,
      "##pua": 3703,
      "yms": 3704,
      "##matonta": 3705,
      "entista": 3706,
      "##ilemaan": 3707,
      "varma": 3708,
      "illalla": 3709,
      "sh": 3710,
      "omalla": 3711,
      "loh": 3712,
      "##uksien": 3713,
      "asenn": 3714,
      "##unnut": 3715,
      "tekevat": 3716,
      "turna": 3717,
      "elokuva": 3718,
      "palaa": 3719,
      "##pul": 3720,
      "kunnolla": 3721,
      "##iselta": 3722,
      "tammik": 3723,
      "urheil": 3724,
      "##ijan": 3725,
      "##mppan": 3726,
      "pyrki": 3727,
      "##ytynyt": 3728,
      "soin": 3729,
      "##gn": 3730,
      "ajatus": 3731,
      "aiv": 3732,
      "kayta": 3733,
      "televisi": 3734,
      "##anne": 3735,
      "sopimuksen": 3736,
      "##ete": 3737,
      "pohjan": 3738,
      "kala": 3739,
      "##del": 3740,
      "kommentoi": 3741,
      "esittaa": 3742,
      "ratkaisu": 3743,
      "##annan": 3744,
      "esit": 3745,
      "yhti": 3746,
      "kilpa": 3747,
      "##laisista": 3748,
      "toivon": 3749,
      "viin": 3750,
      "##leja": 3751,
      "puhua": 3752,
      "##kuja": 3753,
      "kovasti": 3754,
      "kuvia": 3755,
      "##yydesta": 3756,
      "##puna": 3757,
      "##ikaa": 3758,
      "##aika": 3759,
      "mielessa": 3760,
      "300": 3761,
      "##emon": 3762,
      "jarke": 3763,
      "##kselle": 3764,
      "vallan": 3765,
      "##iri": 3766,
      "##ettuja": 3767,
      "puhd": 3768,
      "blo": 3769,
      "harras": 3770,
      "elake": 3771,
      "muutos": 3772,
      "##kosta": 3773,
      "ge": 3774,
      "rikko": 3775,
      "demok": 3776,
      "hah": 3777,
      "muoto": 3778,
      "##miel": 3779,
      "hengen": 3780,
      "nahnyt": 3781,
      "nime": 3782,
      "nimenomaan": 3783,
      "parasta": 3784,
      "##kala": 3785,
      "fo": 3786,
      "minuuttia": 3787,
      "##ola": 3788,
      "linja": 3789,
      "tilais": 3790,
      "##fa": 3791,
      "##kojen": 3792,
      "##immillaan": 3793,
      "otetaan": 3794,
      "##for": 3795,
      "suhte": 3796,
      "ok": 3797,
      "haluavat": 3798,
      "alkaen": 3799,
      "##kkaat": 3800,
      "vetta": 3801,
      "##tas": 3802,
      "vuosia": 3803,
      "2000": 3804,
      "uskoa": 3805,
      "##bin": 3806,
      "##ror": 3807,
      "##maks": 3808,
      "tera": 3809,
      "##iltaan": 3810,
      "##emmaksi": 3811,
      "tuomio": 3812,
      "todellakaan": 3813,
      "markkaa": 3814,
      "taite": 3815,
      "toistaiseksi": 3816,
      "##masi": 3817,
      "mielipit": 3818,
      "##itat": 3819,
      "huone": 3820,
      "##ikk": 3821,
      "##oryh": 3822,
      "##ittava": 3823,
      "##oivat": 3824,
      "aurinko": 3825,
      "isan": 3826,
      "##tansa": 3827,
      "komis": 3828,
      "##juh": 3829,
      "joukkueen": 3830,
      "jaka": 3831,
      "##iasta": 3832,
      "oll": 3833,
      "paatti": 3834,
      "niilla": 3835,
      "antoi": 3836,
      "tarjoaa": 3837,
      "##illinen": 3838,
      "26": 3839,
      "hieno": 3840,
      "##osin": 3841,
      "pyora": 3842,
      "ranskan": 3843,
      "##istetaan": 3844,
      "##mmi": 3845,
      "musl": 3846,
      "kunhan": 3847,
      "197": 3848,
      "kaikkiaan": 3849,
      "kum": 3850,
      "paahan": 3851,
      "##eille": 3852,
      "aal": 3853,
      "##ose": 3854,
      "liiken": 3855,
      "28": 3856,
      "##ottelu": 3857,
      "of": 3858,
      "muille": 3859,
      "laakke": 3860,
      "heilla": 3861,
      "kaikilla": 3862,
      "##koh": 3863,
      "tuotanto": 3864,
      "##osoit": 3865,
      "lauanta": 3866,
      "sopiva": 3867,
      "alun": 3868,
      "liittyy": 3869,
      "##muutta": 3870,
      "varoit": 3871,
      "##miset": 3872,
      "mukava": 3873,
      "kasi": 3874,
      "##innasta": 3875,
      "ajattelin": 3876,
      "puolis": 3877,
      "tappa": 3878,
      "esille": 3879,
      "kayn": 3880,
      "hark": 3881,
      "heh": 3882,
      "##mal": 3883,
      "##of": 3884,
      "kaikista": 3885,
      "##llisen": 3886,
      "vauh": 3887,
      "tilanteessa": 3888,
      "##aat": 3889,
      "riko": 3890,
      "seksu": 3891,
      "hetken": 3892,
      "##tee": 3893,
      "toiseksi": 3894,
      "##tet": 3895,
      "##unnan": 3896,
      "27": 3897,
      "pystyy": 3898,
      "##juo": 3899,
      "herra": 3900,
      "do": 3901,
      "##vil": 3902,
      "niille": 3903,
      "toimeen": 3904,
      "ruokaa": 3905,
      "tyytyvainen": 3906,
      "##ikir": 3907,
      "vuosien": 3908,
      "##utuminen": 3909,
      "maailmassa": 3910,
      "vien": 3911,
      "##suoma": 3912,
      "##laus": 3913,
      "##stro": 3914,
      "puolueen": 3915,
      "materiaa": 3916,
      "saaneet": 3917,
      "rin": 3918,
      "##allisesti": 3919,
      "veden": 3920,
      "olevansa": 3921,
      "palo": 3922,
      "hamma": 3923,
      "mahdollisesti": 3924,
      "ait": 3925,
      "##tek": 3926,
      "helmik": 3927,
      "jotakin": 3928,
      "naisia": 3929,
      "talloin": 3930,
      "paik": 3931,
      "##ettavaksi": 3932,
      "italia": 3933,
      "lahetta": 3934,
      "nostaa": 3935,
      "##mani": 3936,
      "##reen": 3937,
      "tekni": 3938,
      "and": 3939,
      "##pen": 3940,
      "ranta": 3941,
      "tuohon": 3942,
      "##ettavaa": 3943,
      "osin": 3944,
      "risti": 3945,
      "##vallinen": 3946,
      "##sian": 3947,
      "huomenna": 3948,
      "koiv": 3949,
      "##rio": 3950,
      "jark": 3951,
      "joutui": 3952,
      "selvaa": 3953,
      "suomea": 3954,
      "israelin": 3955,
      "hyodyn": 3956,
      "mann": 3957,
      "##poh": 3958,
      "taynna": 3959,
      "juoks": 3960,
      "tel": 3961,
      "samassa": 3962,
      "myynti": 3963,
      "ehdotto": 3964,
      "paassyt": 3965,
      "paris": 3966,
      "tarkas": 3967,
      "kotima": 3968,
      "kevaa": 3969,
      "stt": 3970,
      "metrin": 3971,
      "kato": 3972,
      "pas": 3973,
      "##puu": 3974,
      "##ppoa": 3975,
      "kus": 3976,
      "##pasta": 3977,
      "mukaisesti": 3978,
      "koulun": 3979,
      "pelata": 3980,
      "##kuo": 3981,
      "mikko": 3982,
      "iltana": 3983,
      "saapu": 3984,
      "katsoa": 3985,
      "gra": 3986,
      "##rilla": 3987,
      "edella": 3988,
      "toisessa": 3989,
      "sosiaalis": 3990,
      "mihinkaan": 3991,
      "tasolla": 3992,
      "jatti": 3993,
      "mua": 3994,
      "##itten": 3995,
      "tavoin": 3996,
      "alkohol": 3997,
      "##ret": 3998,
      "pelia": 3999,
      "yksitta": 4000,
      "nousee": 4001,
      "harrasta": 4002,
      "nykyisin": 4003,
      "##kirjoit": 4004,
      "juuta": 4005,
      "ominais": 4006,
      "sc": 4007,
      "##oidon": 4008,
      "puolu": 4009,
      "##ru": 4010,
      "##kkien": 4011,
      "##ongel": 4012,
      "profess": 4013,
      "koiran": 4014,
      "rakas": 4015,
      "niinkuin": 4016,
      "##llisesti": 4017,
      "tallainen": 4018,
      "##rista": 4019,
      "pyha": 4020,
      "inves": 4021,
      "##mari": 4022,
      "##etto": 4023,
      "riv": 4024,
      "hiukan": 4025,
      "pin": 4026,
      "sairas": 4027,
      "##immista": 4028,
      "pros": 4029,
      "##yttava": 4030,
      "##ulan": 4031,
      "kesalla": 4032,
      "hotell": 4033,
      "ui": 4034,
      "##ksilla": 4035,
      "vit": 4036,
      "##kys": 4037,
      "ilmesty": 4038,
      "koo": 4039,
      "##ep": 4040,
      "##dian": 4041,
      "neuvosto": 4042,
      "ilo": 4043,
      "35": 4044,
      "mos": 4045,
      "##koke": 4046,
      "sanan": 4047,
      "##utusta": 4048,
      "raamatun": 4049,
      "veta": 4050,
      "##yssa": 4051,
      "masen": 4052,
      "liit": 4053,
      "##laitoksen": 4054,
      "loista": 4055,
      "nuori": 4056,
      "sopii": 4057,
      "ov": 4058,
      "suuren": 4059,
      "juha": 4060,
      "ber": 4061,
      "##tian": 4062,
      "kiina": 4063,
      "pat": 4064,
      "kulta": 4065,
      "kutsu": 4066,
      "kaupung": 4067,
      "##tonsa": 4068,
      "apu": 4069,
      "##tettu": 4070,
      "##laitos": 4071,
      "##maen": 4072,
      "nhl": 4073,
      "##rate": 4074,
      "varaa": 4075,
      "eta": 4076,
      "##kuva": 4077,
      "lopput": 4078,
      "matkusta": 4079,
      "lat": 4080,
      "##pallon": 4081,
      "##ittavat": 4082,
      "kolmas": 4083,
      "kuljet": 4084,
      "tapahtunut": 4085,
      "##sun": 4086,
      "juhla": 4087,
      "kaveri": 4088,
      "suora": 4089,
      "saatiin": 4090,
      "etuka": 4091,
      "avaa": 4092,
      "##istit": 4093,
      "fyys": 4094,
      "hall": 4095,
      "##jojen": 4096,
      "##osuh": 4097,
      "uskonn": 4098,
      "lopetta": 4099,
      "alu": 4100,
      "vuosikymmen": 4101,
      "##keaa": 4102,
      "oir": 4103,
      "irti": 4104,
      "##lehd": 4105,
      "paranta": 4106,
      "terror": 4107,
      "uno": 4108,
      "johtuu": 4109,
      "kesan": 4110,
      "##ellyt": 4111,
      "osto": 4112,
      "muse": 4113,
      "tyollis": 4114,
      "##utto": 4115,
      "palesti": 4116,
      "aikoo": 4117,
      "tarvitsee": 4118,
      "##nian": 4119,
      "##ruo": 4120,
      "periaatte": 4121,
      "nakokul": 4122,
      "##muo": 4123,
      "lipp": 4124,
      "anal": 4125,
      "ikkun": 4126,
      "teille": 4127,
      "seina": 4128,
      "kari": 4129,
      "erin": 4130,
      "##kya": 4131,
      "brit": 4132,
      "varmista": 4133,
      "liiton": 4134,
      "##allista": 4135,
      "lahden": 4136,
      "##allin": 4137,
      "prosentin": 4138,
      "##paivalla": 4139,
      "stu": 4140,
      "##ttava": 4141,
      "aani": 4142,
      "pun": 4143,
      "teksti": 4144,
      "sot": 4145,
      "toisten": 4146,
      "vajaa": 4147,
      "teen": 4148,
      "##uneet": 4149,
      "kansalais": 4150,
      "teatt": 4151,
      "tutkimuksen": 4152,
      "suunta": 4153,
      "organ": 4154,
      "maatalo": 4155,
      "jarjest": 4156,
      "##unnitel": 4157,
      "olevat": 4158,
      "kaiv": 4159,
      "yhtena": 4160,
      "##kay": 4161,
      "##emista": 4162,
      "ste": 4163,
      "oulun": 4164,
      "##tii": 4165,
      "kalta": 4166,
      "miljoonan": 4167,
      "##sion": 4168,
      "##kto": 4169,
      "##mattomia": 4170,
      "##upin": 4171,
      "##teisiin": 4172,
      "pistetta": 4173,
      "##tisen": 4174,
      "erityisen": 4175,
      "##tul": 4176,
      "saad": 4177,
      "artikk": 4178,
      "lisaanty": 4179,
      "##pro": 4180,
      "laakari": 4181,
      "##het": 4182,
      "inno": 4183,
      "keskustan": 4184,
      "mahta": 4185,
      "##neita": 4186,
      "##kalta": 4187,
      "ulkopuol": 4188,
      "hallinto": 4189,
      "jokaisen": 4190,
      "##itteli": 4191,
      "les": 4192,
      "eivatka": 4193,
      "##tyo": 4194,
      "elamassa": 4195,
      "kaytetty": 4196,
      "kissa": 4197,
      "ansa": 4198,
      "viid": 4199,
      "joudu": 4200,
      "aluksi": 4201,
      "##ssia": 4202,
      "taytta": 4203,
      "##uttamaan": 4204,
      "yrityksen": 4205,
      "2012": 4206,
      "tuore": 4207,
      "joukossa": 4208,
      "paikalle": 4209,
      "toiminut": 4210,
      "tahto": 4211,
      "##istuu": 4212,
      "sodan": 4213,
      "palaut": 4214,
      "saivat": 4215,
      "timo": 4216,
      "vaikeaa": 4217,
      "##mahd": 4218,
      "mess": 4219,
      "rahan": 4220,
      "mielenkiinto": 4221,
      "reil": 4222,
      "pitkan": 4223,
      "suojel": 4224,
      "kauni": 4225,
      "euroo": 4226,
      "##lalla": 4227,
      "liikenn": 4228,
      "karaja": 4229,
      "##vyys": 4230,
      "yksityis": 4231,
      "##asiassa": 4232,
      "nailla": 4233,
      "##lii": 4234,
      "merkitysta": 4235,
      "##emmalla": 4236,
      "syytta": 4237,
      "aanesty": 4238,
      "kuor": 4239,
      "minkaan": 4240,
      "koyh": 4241,
      "erot": 4242,
      "##tinyt": 4243,
      "##suojel": 4244,
      "alkanut": 4245,
      "hon": 4246,
      "ottelussa": 4247,
      "lainkaan": 4248,
      "omassa": 4249,
      "##malta": 4250,
      "kyken": 4251,
      "syntynyt": 4252,
      "##istoa": 4253,
      "##isiksi": 4254,
      "##ilijat": 4255,
      "##vaihto": 4256,
      "kasvan": 4257,
      "##uudella": 4258,
      "tekemista": 4259,
      "##uttanut": 4260,
      "kirj": 4261,
      "tms": 4262,
      "tes": 4263,
      "puolusta": 4264,
      "##teluun": 4265,
      "huomiota": 4266,
      "vaihtoeh": 4267,
      "siiv": 4268,
      "muistuttaa": 4269,
      "suoja": 4270,
      "voisin": 4271,
      "##uttava": 4272,
      "esp": 4273,
      "bon": 4274,
      "vaikutus": 4275,
      "heista": 4276,
      "sisalta": 4277,
      "tarvits": 4278,
      "##lian": 4279,
      "##telija": 4280,
      "entinen": 4281,
      "##eeni": 4282,
      "##ris": 4283,
      "2010": 4284,
      "mistaan": 4285,
      "##teilla": 4286,
      "luokka": 4287,
      "##yksia": 4288,
      "##osten": 4289,
      "##hoita": 4290,
      "yhty": 4291,
      "##milla": 4292,
      "suosi": 4293,
      "poista": 4294,
      "kansainval": 4295,
      "suuria": 4296,
      "##asia": 4297,
      "##misia": 4298,
      "##by": 4299,
      "tapahtui": 4300,
      "etukateen": 4301,
      "yritysten": 4302,
      "anti": 4303,
      "riipp": 4304,
      "##ral": 4305,
      "roman": 4306,
      "laitta": 4307,
      "tarkka": 4308,
      "##dissa": 4309,
      "kuntien": 4310,
      "##rik": 4311,
      "suomalaisen": 4312,
      "suomesta": 4313,
      "##kymmen": 4314,
      "##kenta": 4315,
      "lahten": 4316,
      "itsestaan": 4317,
      "##iinsa": 4318,
      "##ksena": 4319,
      "lupaa": 4320,
      "heik": 4321,
      "##merk": 4322,
      "pop": 4323,
      "vanhemmat": 4324,
      "uutis": 4325,
      "taalta": 4326,
      "syyllis": 4327,
      "lapp": 4328,
      "toisia": 4329,
      "lehden": 4330,
      "2014": 4331,
      "##zz": 4332,
      "##boo": 4333,
      "##ehdo": 4334,
      "valoku": 4335,
      "valitettavasti": 4336,
      "voitta": 4337,
      "miljardia": 4338,
      "huoman": 4339,
      "lienee": 4340,
      "pelaaja": 4341,
      "##ttoa": 4342,
      "##gassa": 4343,
      "molemm": 4344,
      "##ini": 4345,
      "siel": 4346,
      "we": 4347,
      "tuolloin": 4348,
      "##annyt": 4349,
      "saasto": 4350,
      "kaikissa": 4351,
      "##kkaita": 4352,
      "ulkomaa": 4353,
      "##terve": 4354,
      "##jal": 4355,
      "haittaa": 4356,
      "tiede": 4357,
      "tuhan": 4358,
      "toimen": 4359,
      "syksylla": 4360,
      "aur": 4361,
      "viimeinen": 4362,
      "##istettu": 4363,
      "juon": 4364,
      "##kkain": 4365,
      "kap": 4366,
      "info": 4367,
      "valv": 4368,
      "kavin": 4369,
      "45": 4370,
      "henki": 4371,
      "ylen": 4372,
      "lue": 4373,
      "pime": 4374,
      "tuntui": 4375,
      "vaihtaa": 4376,
      "##uku": 4377,
      "##ano": 4378,
      "maata": 4379,
      "pienia": 4380,
      "paikan": 4381,
      "naapur": 4382,
      "eten": 4383,
      "##gia": 4384,
      "ev": 4385,
      "tuote": 4386,
      "puhelin": 4387,
      "nakemy": 4388,
      "sellaisen": 4389,
      "##matka": 4390,
      "##ikasta": 4391,
      "##utuneet": 4392,
      "hop": 4393,
      "toihin": 4394,
      "loytyi": 4395,
      "2013": 4396,
      "osoittaa": 4397,
      "vapaaehto": 4398,
      "##be": 4399,
      "sisaltaa": 4400,
      "##illista": 4401,
      "suhteessa": 4402,
      "numer": 4403,
      "##teri": 4404,
      "tarjolla": 4405,
      "kain": 4406,
      "aiheesta": 4407,
      "erinoma": 4408,
      "##henkil": 4409,
      "rei": 4410,
      "##teko": 4411,
      "##use": 4412,
      "haluaisin": 4413,
      "ohje": 4414,
      "aidin": 4415,
      "perustuu": 4416,
      "tyoela": 4417,
      "##rjoitta": 4418,
      "2011": 4419,
      "palestiina": 4420,
      "kuukautta": 4421,
      "##usko": 4422,
      "##tuksia": 4423,
      "##keh": 4424,
      "kysyn": 4425,
      "ajatella": 4426,
      "##jansa": 4427,
      "##allisen": 4428,
      "##olin": 4429,
      "tilannetta": 4430,
      "##sty": 4431,
      "##tuminen": 4432,
      "kyt": 4433,
      "pl": 4434,
      "onne": 4435,
      "tutustu": 4436,
      "talouden": 4437,
      "##vaihe": 4438,
      "##uin": 4439,
      "##imista": 4440,
      "##mattoman": 4441,
      "haki": 4442,
      "rahat": 4443,
      "oletko": 4444,
      "##ministerio": 4445,
      "rinta": 4446,
      "##hdin": 4447,
      "wa": 4448,
      "kiire": 4449,
      "liigan": 4450,
      "antanut": 4451,
      "##dit": 4452,
      "##tiota": 4453,
      "kuuluvat": 4454,
      "##rjestel": 4455,
      "##ismi": 4456,
      "semm": 4457,
      "ihas": 4458,
      "harm": 4459,
      "##vah": 4460,
      "valinta": 4461,
      "illan": 4462,
      "##muksia": 4463,
      "miettia": 4464,
      "aka": 4465,
      "taid": 4466,
      "##eesta": 4467,
      "samm": 4468,
      "##ester": 4469,
      "pahoin": 4470,
      "##maiden": 4471,
      "##illut": 4472,
      "paivassa": 4473,
      "##ikkoa": 4474,
      "##ds": 4475,
      "kokemusta": 4476,
      "##yyteen": 4477,
      "jalkapallo": 4478,
      "tulevaisuudessa": 4479,
      "##ers": 4480,
      "kunnia": 4481,
      "##pelaa": 4482,
      "hyokkaa": 4483,
      "##tyon": 4484,
      "perussuoma": 4485,
      "##maalla": 4486,
      "##uni": 4487,
      "lampo": 4488,
      "##teta": 4489,
      "th": 4490,
      "roo": 4491,
      "##ikassa": 4492,
      "##dasta": 4493,
      "komp": 4494,
      "peh": 4495,
      "ilmen": 4496,
      "##line": 4497,
      "##ellut": 4498,
      "hotel": 4499,
      "kerrotaan": 4500,
      "viikossa": 4501,
      "viimeksi": 4502,
      "henk": 4503,
      "seuraavan": 4504,
      "ottanut": 4505,
      "lahde": 4506,
      "muihin": 4507,
      "uudestaan": 4508,
      "kappale": 4509,
      "esta": 4510,
      "##tukset": 4511,
      "sattuu": 4512,
      "viimeisen": 4513,
      "laih": 4514,
      "kevaalla": 4515,
      "viisa": 4516,
      "29": 4517,
      "piil": 4518,
      "sdp": 4519,
      "kommun": 4520,
      "vei": 4521,
      "naissa": 4522,
      "vauva": 4523,
      "kuuden": 4524,
      "vetaa": 4525,
      "joihin": 4526,
      "real": 4527,
      "kulttuuri": 4528,
      "markkina": 4529,
      "valiin": 4530,
      "halunnut": 4531,
      "pus": 4532,
      "todista": 4533,
      "tiedotusti": 4534,
      "miehia": 4535,
      "tarina": 4536,
      "paina": 4537,
      "pitkaa": 4538,
      "valtu": 4539,
      "##istusta": 4540,
      "##joukkueen": 4541,
      "##paivana": 4542,
      "##asta": 4543,
      "nahd": 4544,
      "kuollut": 4545,
      "just": 4546,
      "sattu": 4547,
      "ark": 4548,
      "2015": 4549,
      "linkki": 4550,
      "vakivalta": 4551,
      "##vyt": 4552,
      "sanot": 4553,
      "kokemuksia": 4554,
      "kasvu": 4555,
      "##ukselle": 4556,
      "liiketo": 4557,
      "tayden": 4558,
      "voimaan": 4559,
      "sanoin": 4560,
      "kuulemma": 4561,
      "ois": 4562,
      "pysyy": 4563,
      "##ittanyt": 4564,
      "##isina": 4565,
      "kyy": 4566,
      "menossa": 4567,
      "ylimaara": 4568,
      "##pot": 4569,
      "##rvo": 4570,
      "tuho": 4571,
      "ruotsi": 4572,
      "teko": 4573,
      "fir": 4574,
      "johonkin": 4575,
      "veren": 4576,
      "naytti": 4577,
      "selvittaa": 4578,
      "str": 4579,
      "avioli": 4580,
      "maailma": 4581,
      "kuunn": 4582,
      "##olo": 4583,
      "piha": 4584,
      "unoh": 4585,
      "kohtuu": 4586,
      "face": 4587,
      "nuoret": 4588,
      "##llisia": 4589,
      "laaj": 4590,
      "kuulla": 4591,
      "varha": 4592,
      "son": 4593,
      "sanotaan": 4594,
      "rup": 4595,
      "alkuun": 4596,
      "##liik": 4597,
      "matkan": 4598,
      "palkan": 4599,
      "##eihin": 4600,
      "##tat": 4601,
      "pienta": 4602,
      "kumm": 4603,
      "fak": 4604,
      "halv": 4605,
      "voida": 4606,
      "mic": 4607,
      "seuran": 4608,
      "##ityksia": 4609,
      "hymy": 4610,
      "##oria": 4611,
      "vika": 4612,
      "##eria": 4613,
      "tuuli": 4614,
      "toimivat": 4615,
      "kilometrin": 4616,
      "##mala": 4617,
      "##maarin": 4618,
      "kaann": 4619,
      "enempaa": 4620,
      "voiton": 4621,
      "##til": 4622,
      "tem": 4623,
      "##ositi": 4624,
      "paatty": 4625,
      "196": 4626,
      "##ikoi": 4627,
      "all": 4628,
      "##ikkojen": 4629,
      "olisiko": 4630,
      "lapin": 4631,
      "tayt": 4632,
      "kasino": 4633,
      "##mb": 4634,
      "jarjestaa": 4635,
      "##dalla": 4636,
      "##immin": 4637,
      "vois": 4638,
      "syntyy": 4639,
      "##itykset": 4640,
      "jaada": 4641,
      "##paato": 4642,
      "arvon": 4643,
      "##empana": 4644,
      "##isee": 4645,
      "##kuntaa": 4646,
      "keskustelua": 4647,
      "ets": 4648,
      "keskella": 4649,
      "laita": 4650,
      "400": 4651,
      "sydan": 4652,
      "voitaisiin": 4653,
      "sentaan": 4654,
      "##kian": 4655,
      "##vallat": 4656,
      "talle": 4657,
      "vaes": 4658,
      "runsaasti": 4659,
      "sitte": 4660,
      "puhutaan": 4661,
      "##perin": 4662,
      "ehdottomasti": 4663,
      "ruko": 4664,
      "uhkaa": 4665,
      "ots": 4666,
      "suurta": 4667,
      "lopuksi": 4668,
      "##iminen": 4669,
      "jyr": 4670,
      "sch": 4671,
      "hauta": 4672,
      "##yp": 4673,
      "lut": 4674,
      "##gon": 4675,
      "liiga": 4676,
      "englannin": 4677,
      "kovaa": 4678,
      "tunnet": 4679,
      "juttuja": 4680,
      "##pyo": 4681,
      "##irin": 4682,
      "kilpailun": 4683,
      "##utetaan": 4684,
      "##ssit": 4685,
      "##tonen": 4686,
      "paikkaan": 4687,
      "paiko": 4688,
      "vaara": 4689,
      "fran": 4690,
      "taakse": 4691,
      "uuteen": 4692,
      "##rvi": 4693,
      "##ettuna": 4694,
      "kiinan": 4695,
      "##innalla": 4696,
      "##eva": 4697,
      "##minister": 4698,
      "##tteen": 4699,
      "##illen": 4700,
      "##kuntia": 4701,
      "##idat": 4702,
      "##ikainen": 4703,
      "kyllahan": 4704,
      "vieras": 4705,
      "##ij": 4706,
      "laski": 4707,
      "##joen": 4708,
      "kerton": 4709,
      "estaa": 4710,
      "ollu": 4711,
      "viestinta": 4712,
      "##urhe": 4713,
      "alb": 4714,
      "kore": 4715,
      "##laatu": 4716,
      "oliko": 4717,
      "peraan": 4718,
      "hell": 4719,
      "##etin": 4720,
      "omien": 4721,
      "##koi": 4722,
      "todellakin": 4723,
      "jaakiekko": 4724,
      "lit": 4725,
      "teknolog": 4726,
      "suurempi": 4727,
      "toiset": 4728,
      "eras": 4729,
      "mata": 4730,
      "tosia": 4731,
      "##umin": 4732,
      "veron": 4733,
      "tutus": 4734,
      "ensimmaisena": 4735,
      "##ump": 4736,
      "oljy": 4737,
      "laakar": 4738,
      "kiell": 4739,
      "muilla": 4740,
      "##ov": 4741,
      "syntyi": 4742,
      "hankke": 4743,
      "aikoina": 4744,
      "##issani": 4745,
      "jalki": 4746,
      "sehan": 4747,
      "japan": 4748,
      "lask": 4749,
      "sim": 4750,
      "wil": 4751,
      "##kauppa": 4752,
      "km": 4753,
      "tiiv": 4754,
      "##valmentaja": 4755,
      "##mainen": 4756,
      "irtis": 4757,
      "##ihteeri": 4758,
      "seuraava": 4759,
      "paino": 4760,
      "projek": 4761,
      "##sson": 4762,
      "hyl": 4763,
      "haluaisi": 4764,
      "##20": 4765,
      "##koulu": 4766,
      "viha": 4767,
      "##vuutta": 4768,
      "ak": 4769,
      "laati": 4770,
      "##dow": 4771,
      "tietojen": 4772,
      "nuk": 4773,
      "##nia": 4774,
      "##emmalle": 4775,
      "tapahtuma": 4776,
      "kiinnostaa": 4777,
      "tykkaa": 4778,
      "siirto": 4779,
      "vait": 4780,
      "siirr": 4781,
      "mennaan": 4782,
      "kampan": 4783,
      "pyori": 4784,
      "##imerk": 4785,
      "##iini": 4786,
      "##imiel": 4787,
      "tutk": 4788,
      "liikunta": 4789,
      "##ittaja": 4790,
      "kuullut": 4791,
      "huume": 4792,
      "##iteet": 4793,
      "helppoa": 4794,
      "isku": 4795,
      "tol": 4796,
      "##tilaa": 4797,
      "jukka": 4798,
      "suosittel": 4799,
      "musiikki": 4800,
      "kuluttua": 4801,
      "##pis": 4802,
      "##ostus": 4803,
      "toiselle": 4804,
      "##minaa": 4805,
      "kieli": 4806,
      "tuottaa": 4807,
      "##kei": 4808,
      "kayttayty": 4809,
      "teilla": 4810,
      "minakin": 4811,
      "##ilia": 4812,
      "sie": 4813,
      "##lait": 4814,
      "lyo": 4815,
      "out": 4816,
      "jarjestetaan": 4817,
      "##jilla": 4818,
      "hakea": 4819,
      "##pito": 4820,
      "professori": 4821,
      "sve": 4822,
      "mietin": 4823,
      "elintarv": 4824,
      "##innassa": 4825,
      "##uha": 4826,
      "parantaa": 4827,
      "kuoleman": 4828,
      "faceboo": 4829,
      "bus": 4830,
      "lisata": 4831,
      "elinkein": 4832,
      "##utumista": 4833,
      "myyn": 4834,
      "syoda": 4835,
      "oppositi": 4836,
      "voiko": 4837,
      "aikata": 4838,
      "hallitse": 4839,
      "voittaa": 4840,
      "tyossa": 4841,
      "tilanteen": 4842,
      "kansainvalisen": 4843,
      "lailla": 4844,
      "ruotsissa": 4845,
      "##set": 4846,
      "varo": 4847,
      "keskimaarin": 4848,
      "ars": 4849,
      "##htu": 4850,
      "nayttely": 4851,
      "pon": 4852,
      "##ismin": 4853,
      "edista": 4854,
      "pidan": 4855,
      "##isan": 4856,
      "##vapa": 4857,
      "kakkos": 4858,
      "rahoitus": 4859,
      "##vu": 4860,
      "##lilla": 4861,
      "##vallista": 4862,
      "##kolog": 4863,
      "##elliset": 4864,
      "##uton": 4865,
      "vaad": 4866,
      "lopettaa": 4867,
      "##ltaan": 4868,
      "pelkaa": 4869,
      "##lly": 4870,
      "kiinteisto": 4871,
      "ainut": 4872,
      "pitkin": 4873,
      "kok": 4874,
      "##kainen": 4875,
      "jakaa": 4876,
      "##oikeuden": 4877,
      "2008": 4878,
      "katsoo": 4879,
      "2009": 4880,
      "eduskunnan": 4881,
      "sha": 4882,
      "kasvoi": 4883,
      "aloitti": 4884,
      "kyn": 4885,
      "kaunis": 4886,
      "##alin": 4887,
      "31": 4888,
      "petty": 4889,
      "##opimuksen": 4890,
      "##elan": 4891,
      "erikseen": 4892,
      "valo": 4893,
      "uusien": 4894,
      "jonne": 4895,
      "##tehta": 4896,
      "afr": 4897,
      "yhdysvallat": 4898,
      "rann": 4899,
      "euroopassa": 4900,
      "tyyp": 4901,
      "##pite": 4902,
      "lainsaa": 4903,
      "annetaan": 4904,
      "hata": 4905,
      "kam": 4906,
      "viit": 4907,
      "mitka": 4908,
      "kesana": 4909,
      "omis": 4910,
      "##ottom": 4911,
      "kla": 4912,
      "tavan": 4913,
      "##tea": 4914,
      "##ksesi": 4915,
      "kaikkein": 4916,
      "halutaan": 4917,
      "##istunut": 4918,
      "lyhyt": 4919,
      "##gaa": 4920,
      "muutamia": 4921,
      "myontaa": 4922,
      "##ostuu": 4923,
      "yhdeksan": 4924,
      "liittyvat": 4925,
      "kaikesta": 4926,
      "amm": 4927,
      "korvaa": 4928,
      "##anoma": 4929,
      "kaar": 4930,
      "kayttoa": 4931,
      "tyottomyys": 4932,
      "##pia": 4933,
      "muisto": 4934,
      "##valio": 4935,
      "tyoryh": 4936,
      "erikois": 4937,
      "##utkim": 4938,
      "olikin": 4939,
      "osake": 4940,
      "##jarven": 4941,
      "##leh": 4942,
      "muissa": 4943,
      "osapuol": 4944,
      "goo": 4945,
      "##istosta": 4946,
      "kysya": 4947,
      "sivusto": 4948,
      "##tamista": 4949,
      "##koti": 4950,
      "##tuen": 4951,
      "paska": 4952,
      "palstalla": 4953,
      "##tanen": 4954,
      "nar": 4955,
      "##tuneen": 4956,
      "##dio": 4957,
      "asetta": 4958,
      "suj": 4959,
      "jouko": 4960,
      "julkis": 4961,
      "toimit": 4962,
      "laito": 4963,
      "pla": 4964,
      "aust": 4965,
      "##valti": 4966,
      "vasemmisto": 4967,
      "kerralla": 4968,
      "etteivat": 4969,
      "kaytosta": 4970,
      "baa": 4971,
      "tallaista": 4972,
      "ajon": 4973,
      "tarkoituksena": 4974,
      "laatu": 4975,
      "tulokset": 4976,
      "dig": 4977,
      "ketj": 4978,
      "nal": 4979,
      "##ettel": 4980,
      "kenta": 4981,
      "vauhd": 4982,
      "sijaitsee": 4983,
      "hankin": 4984,
      "ajankohta": 4985,
      "oppia": 4986,
      "lasku": 4987,
      "##tei": 4988,
      "tark": 4989,
      "##miselle": 4990,
      "vastaus": 4991,
      "##daa": 4992,
      "alkavat": 4993,
      "oikeassa": 4994,
      "vanhempien": 4995,
      "eraan": 4996,
      "pyytaa": 4997,
      "jor": 4998,
      "##toimin": 4999,
      "sairaan": 5000,
      "sanonut": 5001,
      "puhelim": 5002,
      "nykyinen": 5003,
      "erilais": 5004,
      "##emin": 5005,
      "##kkoja": 5006,
      "##uky": 5007,
      "kark": 5008,
      "lauka": 5009,
      "ulkopuolella": 5010,
      "##maansa": 5011,
      "poikkeuks": 5012,
      "##ullinen": 5013,
      "rakentaa": 5014,
      "muitakin": 5015,
      "online": 5016,
      "normaali": 5017,
      "vihre": 5018,
      "syt": 5019,
      "ryhman": 5020,
      "pidat": 5021,
      "##etyn": 5022,
      "##kohan": 5023,
      "maailmaa": 5024,
      "kk": 5025,
      "##lossa": 5026,
      "bal": 5027,
      "kaipaa": 5028,
      "valmentaja": 5029,
      "##ksille": 5030,
      "##istun": 5031,
      "##uuksien": 5032,
      "tarvi": 5033,
      "kasittely": 5034,
      "ratsa": 5035,
      "##omista": 5036,
      "austral": 5037,
      "##kyn": 5038,
      "maananta": 5039,
      "mul": 5040,
      "##psa": 5041,
      "ohjelman": 5042,
      "gen": 5043,
      "talvi": 5044,
      "pitavat": 5045,
      "valissa": 5046,
      "mielipid": 5047,
      "##th": 5048,
      "##mukset": 5049,
      "##utkin": 5050,
      "luken": 5051,
      "##misella": 5052,
      "##seet": 5053,
      "onnistunut": 5054,
      "sulla": 5055,
      "viikonloppuna": 5056,
      "##ostaan": 5057,
      "teollisuus": 5058,
      "##can": 5059,
      "gol": 5060,
      "##ette": 5061,
      "kokeilla": 5062,
      "vahvista": 5063,
      "##laati": 5064,
      "odotetaan": 5065,
      "##kille": 5066,
      "elamasta": 5067,
      "pieta": 5068,
      "##oinn": 5069,
      "##usaa": 5070,
      "muuttuu": 5071,
      "minuutin": 5072,
      "yhteiskunta": 5073,
      "##ls": 5074,
      "haj": 5075,
      "joitakin": 5076,
      "jollain": 5077,
      "eikohan": 5078,
      "##moit": 5079,
      "syks": 5080,
      "pelasi": 5081,
      "hinnat": 5082,
      "yhdysvalloissa": 5083,
      "##tilan": 5084,
      "nautti": 5085,
      "##fk": 5086,
      "tallin": 5087,
      "aikoinaan": 5088,
      "ben": 5089,
      "vol": 5090,
      "osu": 5091,
      "##ministerin": 5092,
      "kulke": 5093,
      "kaupungissa": 5094,
      "rus": 5095,
      "pallo": 5096,
      "##tko": 5097,
      "voittanut": 5098,
      "##stuu": 5099,
      "##oluut": 5100,
      "##saar": 5101,
      "##tajan": 5102,
      "vielakin": 5103,
      "star": 5104,
      "##ilma": 5105,
      "perustus": 5106,
      "##lahd": 5107,
      "##oittaa": 5108,
      "toimintaan": 5109,
      "nahta": 5110,
      "pai": 5111,
      "poissa": 5112,
      "##ketti": 5113,
      "##uote": 5114,
      "voittaja": 5115,
      "##puoli": 5116,
      "valtioneuv": 5117,
      "##kuntaan": 5118,
      "kevat": 5119,
      "korjaa": 5120,
      "hankki": 5121,
      "##ittomasti": 5122,
      "noussut": 5123,
      "iha": 5124,
      "2007": 5125,
      "lahesty": 5126,
      "joutu": 5127,
      "vuosittain": 5128,
      "huomannut": 5129,
      "valmiiksi": 5130,
      "maksamaan": 5131,
      "joens": 5132,
      "##ointia": 5133,
      "lenn": 5134,
      "jussi": 5135,
      "maalia": 5136,
      "samat": 5137,
      "kars": 5138,
      "sovell": 5139,
      "##gar": 5140,
      "hein": 5141,
      "##ehti": 5142,
      "kisoissa": 5143,
      "oot": 5144,
      "uutisto": 5145,
      "sukupuol": 5146,
      "##joilla": 5147,
      "maissa": 5148,
      "##oksia": 5149,
      "avoin": 5150,
      "koskee": 5151,
      "ehdot": 5152,
      "tervet": 5153,
      "sto": 5154,
      "ottamaan": 5155,
      "paket": 5156,
      "vari": 5157,
      "parhaiten": 5158,
      "valitse": 5159,
      "nahdaan": 5160,
      "puke": 5161,
      "##sh": 5162,
      "metria": 5163,
      "##eskel": 5164,
      "taustalla": 5165,
      "edustaja": 5166,
      "##ollisen": 5167,
      "meri": 5168,
      "ymmarr": 5169,
      "##ettavan": 5170,
      "maailmanc": 5171,
      "##ilijan": 5172,
      "##vuoden": 5173,
      "##sino": 5174,
      "autoa": 5175,
      "suosit": 5176,
      "auring": 5177,
      "korkein": 5178,
      "##kaus": 5179,
      "tasapain": 5180,
      "##sarja": 5181,
      "##mille": 5182,
      "luulta": 5183,
      "jer": 5184,
      "muutoksia": 5185,
      "##hoito": 5186,
      "esitys": 5187,
      "tha": 5188,
      "heidat": 5189,
      "toimiva": 5190,
      "operaa": 5191,
      "varm": 5192,
      "##ihi": 5193,
      "tapaan": 5194,
      "jari": 5195,
      "2006": 5196,
      "kot": 5197,
      "yleisesti": 5198,
      "savon": 5199,
      "organisaa": 5200,
      "normaalisti": 5201,
      "epaonn": 5202,
      "sanoma": 5203,
      "asukka": 5204,
      "maaran": 5205,
      "syyna": 5206,
      "laula": 5207,
      "ii": 5208,
      "##doin": 5209,
      "varus": 5210,
      "hanesta": 5211,
      "##varain": 5212,
      "tapp": 5213,
      "sotilas": 5214,
      "houkut": 5215,
      "totuus": 5216,
      "##reet": 5217,
      "##kkiin": 5218,
      "vahentaa": 5219,
      "lapsille": 5220,
      "##tty": 5221,
      "##ukon": 5222,
      "pyh": 5223,
      "##kise": 5224,
      "tilalle": 5225,
      "tietenkaan": 5226,
      "huonosti": 5227,
      "muuttu": 5228,
      "vene": 5229,
      "yhteiskunnan": 5230,
      "kiista": 5231,
      "##keita": 5232,
      "kunin": 5233,
      "mahdollisuuksia": 5234,
      "##emisen": 5235,
      "##miksi": 5236,
      "myynn": 5237,
      "##tiedot": 5238,
      "joud": 5239,
      "viranomaiset": 5240,
      "fan": 5241,
      "ottelua": 5242,
      "bel": 5243,
      "etu": 5244,
      "ylit": 5245,
      "menetta": 5246,
      "##eti": 5247,
      "rool": 5248,
      "hyotya": 5249,
      "maahanmuutta": 5250,
      "suomalaisia": 5251,
      "##miehen": 5252,
      "kit": 5253,
      "alen": 5254,
      "##neista": 5255,
      "voimassa": 5256,
      "tahti": 5257,
      "lappeen": 5258,
      "##laisessa": 5259,
      "toteutta": 5260,
      "seuraavat": 5261,
      "##ikku": 5262,
      "##jalta": 5263,
      "window": 5264,
      "olosuh": 5265,
      "##neiden": 5266,
      "##hu": 5267,
      "syon": 5268,
      "auta": 5269,
      "keraa": 5270,
      "##ttua": 5271,
      "naap": 5272,
      "juna": 5273,
      "harvina": 5274,
      "rovani": 5275,
      "##teinen": 5276,
      "hauskaa": 5277,
      "##dun": 5278,
      "suomalaista": 5279,
      "strate": 5280,
      "musiikin": 5281,
      "nato": 5282,
      "##uotte": 5283,
      "viro": 5284,
      "yor": 5285,
      "##udulla": 5286,
      "moottori": 5287,
      "##oinnin": 5288,
      "##uran": 5289,
      "seurauksena": 5290,
      "##kera": 5291,
      "varmis": 5292,
      "tiete": 5293,
      "joutunut": 5294,
      "kov": 5295,
      "haas": 5296,
      "##terin": 5297,
      "##tina": 5298,
      "luotto": 5299,
      "##leista": 5300,
      "trump": 5301,
      "vakuutus": 5302,
      "##kunnalle": 5303,
      "vanke": 5304,
      "##vaati": 5305,
      "satu": 5306,
      "##stit": 5307,
      "vahva": 5308,
      "##mpar": 5309,
      "syrja": 5310,
      "huolta": 5311,
      "koneen": 5312,
      "##ysten": 5313,
      "laiva": 5314,
      "lahja": 5315,
      "matkus": 5316,
      "kivaa": 5317,
      "persoon": 5318,
      "tarkoitettu": 5319,
      "paivittain": 5320,
      "tuoda": 5321,
      "##leissa": 5322,
      "helvet": 5323,
      "go": 5324,
      "##tavan": 5325,
      "ret": 5326,
      "malli": 5327,
      "sup": 5328,
      "##laiseen": 5329,
      "mieheni": 5330,
      "tiedotus": 5331,
      "##vaikut": 5332,
      "paljoa": 5333,
      "oikean": 5334,
      "puhuu": 5335,
      "aio": 5336,
      "kevaan": 5337,
      "##ityksesta": 5338,
      "##cin": 5339,
      "matkaa": 5340,
      "ag": 5341,
      "##istui": 5342,
      "ratkaise": 5343,
      "heikko": 5344,
      "nayta": 5345,
      "arvosta": 5346,
      "##easti": 5347,
      "askel": 5348,
      "##ilijoiden": 5349,
      "nis": 5350,
      "katsotaan": 5351,
      "katta": 5352,
      "osakke": 5353,
      "##fo": 5354,
      "matkalla": 5355,
      "kelpaa": 5356,
      "palvelut": 5357,
      "##utumaan": 5358,
      "##ymy": 5359,
      "kertovat": 5360,
      "kuus": 5361,
      "parissa": 5362,
      "##istoon": 5363,
      "iku": 5364,
      "nu": 5365,
      "be": 5366,
      "##oksi": 5367,
      "##him": 5368,
      "riippuu": 5369,
      "##viksi": 5370,
      "suunna": 5371,
      "ilmasto": 5372,
      "kopi": 5373,
      "tunti": 5374,
      "##poliitt": 5375,
      "evan": 5376,
      "kokoomuksen": 5377,
      "vieda": 5378,
      "##yhteis": 5379,
      "paikkaa": 5380,
      "parjaa": 5381,
      "##demok": 5382,
      "##laisuudessa": 5383,
      "sir": 5384,
      "ulkoministeri": 5385,
      "pojan": 5386,
      "hama": 5387,
      "##illisen": 5388,
      "etsin": 5389,
      "##ysi": 5390,
      "merkki": 5391,
      "##pall": 5392,
      "kin": 5393,
      "##jarjesto": 5394,
      "syste": 5395,
      "##tuneita": 5396,
      "terveydenhuol": 5397,
      "hyvinkin": 5398,
      "kokemus": 5399,
      "asema": 5400,
      "itselleni": 5401,
      "kielen": 5402,
      "pelannut": 5403,
      "laul": 5404,
      "heikki": 5405,
      "loi": 5406,
      "vihdoin": 5407,
      "vastata": 5408,
      "ristiri": 5409,
      "vatsa": 5410,
      "##elman": 5411,
      "##oiksi": 5412,
      "rauhassa": 5413,
      "alueelle": 5414,
      "seksi": 5415,
      "tiedossa": 5416,
      "##hyo": 5417,
      "luvan": 5418,
      "sekaan": 5419,
      "aikanaan": 5420,
      "muutkin": 5421,
      "mumm": 5422,
      "pienet": 5423,
      "##kp": 5424,
      "normaalia": 5425,
      "lind": 5426,
      "valtiovarain": 5427,
      "asioiden": 5428,
      "kevy": 5429,
      "con": 5430,
      "##pani": 5431,
      "194": 5432,
      "##uutensa": 5433,
      "valeh": 5434,
      "asuu": 5435,
      "oltava": 5436,
      "kokoa": 5437,
      "seurata": 5438,
      "##uksensa": 5439,
      "olli": 5440,
      "iltapaivalla": 5441,
      "john": 5442,
      "##fin": 5443,
      "rakkaus": 5444,
      "##bb": 5445,
      "katu": 5446,
      "ia": 5447,
      "##ikas": 5448,
      "otettu": 5449,
      "perati": 5450,
      "poliit": 5451,
      "yon": 5452,
      "kiinnostunut": 5453,
      "sinut": 5454,
      "maase": 5455,
      "muutakin": 5456,
      "##reja": 5457,
      "nokia": 5458,
      "eva": 5459,
      "##ikana": 5460,
      "britannian": 5461,
      "kokoomus": 5462,
      "tarj": 5463,
      "##erit": 5464,
      "investoin": 5465,
      "automaatt": 5466,
      "itsellani": 5467,
      "##bur": 5468,
      "##mitta": 5469,
      "para": 5470,
      "maaliva": 5471,
      "ensimmaiset": 5472,
      "eroon": 5473,
      "tarvittaessa": 5474,
      "tarkemmin": 5475,
      "##ties": 5476,
      "eg": 5477,
      "loydy": 5478,
      "vaaran": 5479,
      "video": 5480,
      "36": 5481,
      "riittavasti": 5482,
      "##lata": 5483,
      "##ikaan": 5484,
      "seis": 5485,
      "##tra": 5486,
      "##ysin": 5487,
      "##za": 5488,
      "idea": 5489,
      "miell": 5490,
      "kirjoitti": 5491,
      "##orin": 5492,
      "radio": 5493,
      "##uissa": 5494,
      "lahettaa": 5495,
      "eks": 5496,
      "hitaa": 5497,
      "pahasti": 5498,
      "mukavaa": 5499,
      "kymmenia": 5500,
      "terv": 5501,
      "32": 5502,
      "make": 5503,
      "osasto": 5504,
      "tietokone": 5505,
      "avar": 5506,
      "ite": 5507,
      "taida": 5508,
      "yhteistyota": 5509,
      "kolmannen": 5510,
      "##uot": 5511,
      "elakke": 5512,
      "taistelu": 5513,
      "##land": 5514,
      "##kkoa": 5515,
      "##istien": 5516,
      "tajua": 5517,
      "verra": 5518,
      "tulosta": 5519,
      "touh": 5520,
      "tarkoita": 5521,
      "maahanmuut": 5522,
      "ville": 5523,
      "asuin": 5524,
      "veto": 5525,
      "##haan": 5526,
      "puolelle": 5527,
      "koto": 5528,
      "ansiosta": 5529,
      "##mur": 5530,
      "israel": 5531,
      "##yhtion": 5532,
      "sovel": 5533,
      "otte": 5534,
      "riittavan": 5535,
      "ravintola": 5536,
      "parann": 5537,
      "uskal": 5538,
      "vaiva": 5539,
      "selka": 5540,
      "kisojen": 5541,
      "hienoa": 5542,
      "muodosta": 5543,
      "komen": 5544,
      "##eren": 5545,
      "##vaisia": 5546,
      "luultavasti": 5547,
      "sivi": 5548,
      "hiihto": 5549,
      "mc": 5550,
      "harvoin": 5551,
      "kouv": 5552,
      "ate": 5553,
      "vaittaa": 5554,
      "goog": 5555,
      "##haki": 5556,
      "##isyytta": 5557,
      "##koulun": 5558,
      "posta": 5559,
      "posti": 5560,
      "##ppy": 5561,
      "heiken": 5562,
      "voimme": 5563,
      "##ollisia": 5564,
      "ihmisille": 5565,
      "nega": 5566,
      "esilla": 5567,
      "maasta": 5568,
      "lauta": 5569,
      "tim": 5570,
      "##ikalla": 5571,
      "kirjallis": 5572,
      "naihin": 5573,
      "uutistoimisto": 5574,
      "yritykset": 5575,
      "pitkalle": 5576,
      "##kaista": 5577,
      "pankki": 5578,
      "joukkoon": 5579,
      "##itun": 5580,
      "karj": 5581,
      "##ted": 5582,
      "joker": 5583,
      "glo": 5584,
      "jalke": 5585,
      "kauk": 5586,
      "##ympar": 5587,
      "##ttori": 5588,
      "koulussa": 5589,
      "norja": 5590,
      "##itykseen": 5591,
      "loytanyt": 5592,
      "##valtaa": 5593,
      "loytynyt": 5594,
      "##uksilla": 5595,
      "selkeasti": 5596,
      "pahaa": 5597,
      "peleja": 5598,
      "##allisia": 5599,
      "vastaava": 5600,
      "huut": 5601,
      "2005": 5602,
      "kuulostaa": 5603,
      "##keti": 5604,
      "laake": 5605,
      "##lauta": 5606,
      "suhde": 5607,
      "kaytannon": 5608,
      "mosko": 5609,
      "vahin": 5610,
      "perustu": 5611,
      "ut": 5612,
      "rata": 5613,
      "selittaa": 5614,
      "hameenlin": 5615,
      "aino": 5616,
      "##jattu": 5617,
      "naim": 5618,
      "annettu": 5619,
      "hoitoon": 5620,
      "kasvanut": 5621,
      "lakka": 5622,
      "paikassa": 5623,
      "edullis": 5624,
      "##yttiin": 5625,
      "taso": 5626,
      "tanssi": 5627,
      "tarvetta": 5628,
      "tuttu": 5629,
      "perassa": 5630,
      "joille": 5631,
      "netissa": 5632,
      "seuraavaksi": 5633,
      "keskenaan": 5634,
      "##ikun": 5635,
      "pyritaan": 5636,
      "##tm": 5637,
      "##tinsa": 5638,
      "kaksin": 5639,
      "ham": 5640,
      "##pon": 5641,
      "soi": 5642,
      "sukupol": 5643,
      "##tukseen": 5644,
      "nii": 5645,
      "arki": 5646,
      "33": 5647,
      "hyvalta": 5648,
      "##annen": 5649,
      "##innut": 5650,
      "##ikul": 5651,
      "##okset": 5652,
      "lukee": 5653,
      "##reilla": 5654,
      "##uolis": 5655,
      "##eton": 5656,
      "##jarv": 5657,
      "vaarassa": 5658,
      "huv": 5659,
      "pelkka": 5660,
      "sekuntia": 5661,
      "##kussa": 5662,
      "nae": 5663,
      "naura": 5664,
      "ohjelmis": 5665,
      "hankkia": 5666,
      "velv": 5667,
      "##kkonen": 5668,
      "kahta": 5669,
      "saasta": 5670,
      "keks": 5671,
      "taysi": 5672,
      "olleen": 5673,
      "##kaynn": 5674,
      "lopullis": 5675,
      "kenenkaan": 5676,
      "vastu": 5677,
      "erityis": 5678,
      "jaljella": 5679,
      "##ssani": 5680,
      "paavalmentaja": 5681,
      "##sal": 5682,
      "##tyvat": 5683,
      "venajalla": 5684,
      "allekirjoit": 5685,
      "urheilu": 5686,
      "kuukaus": 5687,
      "pri": 5688,
      "##ias": 5689,
      "ilmoittaa": 5690,
      "##naa": 5691,
      "lopulla": 5692,
      "##otonta": 5693,
      "##demokraa": 5694,
      "ana": 5695,
      "tapaus": 5696,
      "sairaus": 5697,
      "##vaku": 5698,
      "sarjassa": 5699,
      "toteuttaa": 5700,
      "monesti": 5701,
      "##pila": 5702,
      "hammas": 5703,
      "neuvottelut": 5704,
      "##yyn": 5705,
      "epavar": 5706,
      "##pala": 5707,
      "saattavat": 5708,
      "##tekni": 5709,
      "vaimo": 5710,
      "hyody": 5711,
      "mt": 5712,
      "##sit": 5713,
      "valittaa": 5714,
      "##gista": 5715,
      "##juttu": 5716,
      "kehittaa": 5717,
      "##iker": 5718,
      "jauh": 5719,
      "itseani": 5720,
      "##maassa": 5721,
      "uu": 5722,
      "selva": 5723,
      "mielestaan": 5724,
      "armeijan": 5725,
      "luopu": 5726,
      "nimea": 5727,
      "##mpaan": 5728,
      "tehneet": 5729,
      "bla": 5730,
      "hida": 5731,
      "tuoma": 5732,
      "##laisesta": 5733,
      "##teihin": 5734,
      "avo": 5735,
      "kansainvalinen": 5736,
      "italian": 5737,
      "turku": 5738,
      "##ityksessa": 5739,
      "vamma": 5740,
      "toimittaja": 5741,
      "kulkee": 5742,
      "osittain": 5743,
      "##essin": 5744,
      "##harjoit": 5745,
      "tiedo": 5746,
      "##isyyd": 5747,
      "lahtenyt": 5748,
      "ali": 5749,
      "##itar": 5750,
      "ihanaa": 5751,
      "lukuun": 5752,
      "##kustann": 5753,
      "hahm": 5754,
      "##liit": 5755,
      "tyotto": 5756,
      "##pla": 5757,
      "##vis": 5758,
      "noista": 5759,
      "ten": 5760,
      "julkista": 5761,
      "suostu": 5762,
      "alta": 5763,
      "onnistuu": 5764,
      "##inut": 5765,
      "demokra": 5766,
      "elinkeino": 5767,
      "osallistua": 5768,
      "##ustel": 5769,
      "##vuos": 5770,
      "kirjoittaja": 5771,
      "kiit": 5772,
      "nokian": 5773,
      "##kkit": 5774,
      "sattui": 5775,
      "sika": 5776,
      "doku": 5777,
      "kuvi": 5778,
      "parempaa": 5779,
      "sinansa": 5780,
      "##km": 5781,
      "herm": 5782,
      "massa": 5783,
      "##jetti": 5784,
      "tahden": 5785,
      "vanki": 5786,
      "##eella": 5787,
      "tarpeen": 5788,
      "minne": 5789,
      "silma": 5790,
      "##tietoja": 5791,
      "ongelmat": 5792,
      "##und": 5793,
      "negatiiv": 5794,
      "luottamus": 5795,
      "yona": 5796,
      "taita": 5797,
      "##taneet": 5798,
      "koste": 5799,
      "##nee": 5800,
      "olekaan": 5801,
      "##puolue": 5802,
      "##televa": 5803,
      "##keri": 5804,
      "##rella": 5805,
      "tarjota": 5806,
      "##reista": 5807,
      "merkittava": 5808,
      "yritan": 5809,
      "asiantuntija": 5810,
      "konf": 5811,
      "ystava": 5812,
      "historian": 5813,
      "##hdy": 5814,
      "hotelli": 5815,
      "##sas": 5816,
      "##teeni": 5817,
      "kansanedusta": 5818,
      "keksi": 5819,
      "##rinen": 5820,
      "##hat": 5821,
      "viimeistaan": 5822,
      "puuttuu": 5823,
      "##otusta": 5824,
      "aari": 5825,
      "saily": 5826,
      "nappa": 5827,
      "##onnut": 5828,
      "pelit": 5829,
      "##yyt": 5830,
      "nolla": 5831,
      "neli": 5832,
      "meista": 5833,
      "polttoa": 5834,
      "kyla": 5835,
      "merkitys": 5836,
      "##ohon": 5837,
      "niinisto": 5838,
      "teem": 5839,
      "##rah": 5840,
      "dokumen": 5841,
      "useimm": 5842,
      "##vuuden": 5843,
      "##uttavat": 5844,
      "via": 5845,
      "kenties": 5846,
      "unionin": 5847,
      "##tyksen": 5848,
      "##isija": 5849,
      "150": 5850,
      "pysah": 5851,
      "ikava": 5852,
      "olevia": 5853,
      "maat": 5854,
      "##anaan": 5855,
      "tw": 5856,
      "sanaa": 5857,
      "energian": 5858,
      "##uste": 5859,
      "##lot": 5860,
      "vahvasti": 5861,
      "tanska": 5862,
      "suuret": 5863,
      "##viranoma": 5864,
      "leika": 5865,
      "sad": 5866,
      "kertonut": 5867,
      "todellinen": 5868,
      "tuotteita": 5869,
      "ph": 5870,
      "##suunnitel": 5871,
      "poistaa": 5872,
      "##ima": 5873,
      "viittaa": 5874,
      "tietokon": 5875,
      "rajan": 5876,
      "mari": 5877,
      "yhteinen": 5878,
      "hedel": 5879,
      "remon": 5880,
      "laitto": 5881,
      "paasto": 5882,
      "pudotus": 5883,
      "kaynnisty": 5884,
      "valtakunn": 5885,
      "vastasi": 5886,
      "siirtyy": 5887,
      "nahden": 5888,
      "vakavasti": 5889,
      "##vinnyt": 5890,
      "pyst": 5891,
      "jarjestelma": 5892,
      "seksia": 5893,
      "riste": 5894,
      "esimerkki": 5895,
      "sijoitus": 5896,
      "huomasin": 5897,
      "2004": 5898,
      "##virasto": 5899,
      "kasvo": 5900,
      "juttua": 5901,
      "##ytya": 5902,
      "hous": 5903,
      "elokuvan": 5904,
      "##upal": 5905,
      "valittu": 5906,
      "veh": 5907,
      "epailty": 5908,
      "##tinut": 5909,
      "##lad": 5910,
      "tyyd": 5911,
      "nimimerk": 5912,
      "##joitus": 5913,
      "##tille": 5914,
      "halusi": 5915,
      "##tonin": 5916,
      "kodin": 5917,
      "##leita": 5918,
      "##jeli": 5919,
      "haave": 5920,
      "nes": 5921,
      "yolla": 5922,
      "##iminta": 5923,
      "##vit": 5924,
      "kasittele": 5925,
      "##rakenn": 5926,
      "##kais": 5927,
      "##opo": 5928,
      "eraa": 5929,
      "paavo": 5930,
      "foor": 5931,
      "seksuaalis": 5932,
      "jaksaa": 5933,
      "sula": 5934,
      "voisivat": 5935,
      "kuiv": 5936,
      "pate": 5937,
      "quote": 5938,
      "mahdollinen": 5939,
      "tekija": 5940,
      "kokenut": 5941,
      "vahvistaa": 5942,
      "minister": 5943,
      "tulevaisuuden": 5944,
      "nuoria": 5945,
      "##muna": 5946,
      "pinta": 5947,
      "##unsa": 5948,
      "raaka": 5949,
      "aitin": 5950,
      "##ulos": 5951,
      "edellisen": 5952,
      "suih": 5953,
      "norjan": 5954,
      "kumpi": 5955,
      "##mmaksi": 5956,
      "##joukko": 5957,
      "kauko": 5958,
      "kamppail": 5959,
      "ohella": 5960,
      "kallis": 5961,
      "tulevan": 5962,
      "kesku": 5963,
      "ylivoima": 5964,
      "teita": 5965,
      "##etyt": 5966,
      "kuukausi": 5967,
      "pitais": 5968,
      "mielu": 5969,
      "##kseksi": 5970,
      "haukku": 5971,
      "##evan": 5972,
      "saatan": 5973,
      "##tiaa": 5974,
      "palk": 5975,
      "##tulo": 5976,
      "akti": 5977,
      "slo": 5978,
      "##xin": 5979,
      "34": 5980,
      "##miehet": 5981,
      "omistaja": 5982,
      "hoi": 5983,
      "##maksu": 5984,
      "ulkopuolis": 5985,
      "##tyneet": 5986,
      "##keasti": 5987,
      "viranomaisten": 5988,
      "hiil": 5989,
      "##voiman": 5990,
      "nauttia": 5991,
      "sauna": 5992,
      "muodossa": 5993,
      "samo": 5994,
      "##ytto": 5995,
      "jyvaskylan": 5996,
      "paakaupunkise": 5997,
      "satoja": 5998,
      "##eltu": 5999,
      "parhaillaan": 6000,
      "saatto": 6001,
      "katsomaan": 6002,
      "vanhemm": 6003,
      "kumppan": 6004,
      "leik": 6005,
      "katto": 6006,
      "sekunn": 6007,
      "ajatuksia": 6008,
      "stan": 6009,
      "pohjalta": 6010,
      "totuu": 6011,
      "myoskin": 6012,
      "uima": 6013,
      "##umi": 6014,
      "puheenjohta": 6015,
      "##uva": 6016,
      "hetk": 6017,
      "syksyn": 6018,
      "vauhtia": 6019,
      "kokouksessa": 6020,
      "ukrainan": 6021,
      "##ttinen": 6022,
      "henkilon": 6023,
      "2016": 6024,
      "##telyn": 6025,
      "pron": 6026,
      "muslim": 6027,
      "##kuntien": 6028,
      "purka": 6029,
      "tarkein": 6030,
      "muuttunut": 6031,
      "myrs": 6032,
      "olevien": 6033,
      "pohd": 6034,
      "keskustella": 6035,
      "tarve": 6036,
      "bu": 6037,
      "##keista": 6038,
      "##tsi": 6039,
      "##misa": 6040,
      "koe": 6041,
      "kaune": 6042,
      "edellyttaa": 6043,
      "ymmarran": 6044,
      "espanjan": 6045,
      "##stossa": 6046,
      "paih": 6047,
      "tarvin": 6048,
      "meta": 6049,
      "keskia": 6050,
      "##immassa": 6051,
      "opiskelija": 6052,
      "meren": 6053,
      "##ilijoita": 6054,
      "raamattu": 6055,
      "parhaat": 6056,
      "luonne": 6057,
      "##pros": 6058,
      "##kaytto": 6059,
      "kokeil": 6060,
      "##umero": 6061,
      "oul": 6062,
      "##laiselle": 6063,
      "kump": 6064,
      "##uoma": 6065,
      "##annon": 6066,
      "yhteys": 6067,
      "lehdisto": 6068,
      "##sassa": 6069,
      "tavallaan": 6070,
      "geor": 6071,
      "mieluu": 6072,
      "maar": 6073,
      "tukhol": 6074,
      "##ec": 6075,
      "eran": 6076,
      "etsia": 6077,
      "nahty": 6078,
      "600": 6079,
      "##korkea": 6080,
      "teet": 6081,
      "##pele": 6082,
      "juur": 6083,
      "##ittavaa": 6084,
      "maasto": 6085,
      "tunnu": 6086,
      "luulen": 6087,
      "kuvitella": 6088,
      "kaukana": 6089,
      "arm": 6090,
      "kuntoon": 6091,
      "perustel": 6092,
      "kansanedustaja": 6093,
      "prin": 6094,
      "karjalan": 6095,
      "##kaupan": 6096,
      "##ettaessa": 6097,
      "yhteistyo": 6098,
      "##suh": 6099,
      "du": 6100,
      "irtisano": 6101,
      "kayton": 6102,
      "sulle": 6103,
      "maala": 6104,
      "kenelle": 6105,
      "milta": 6106,
      "##uomi": 6107,
      "keva": 6108,
      "##emur": 6109,
      "noudatta": 6110,
      "afgan": 6111,
      "lakia": 6112,
      "##ipa": 6113,
      "lasna": 6114,
      "kaupp": 6115,
      "arvel": 6116,
      "parisuh": 6117,
      "##elu": 6118,
      "ostin": 6119,
      "lukenut": 6120,
      "##hia": 6121,
      "##innin": 6122,
      "##itoista": 6123,
      "katsa": 6124,
      "virh": 6125,
      "monim": 6126,
      "tonn": 6127,
      "##keissa": 6128,
      "seikka": 6129,
      "akate": 6130,
      "tunnettu": 6131,
      "luokan": 6132,
      "##con": 6133,
      "armeija": 6134,
      "pelissa": 6135,
      "##laki": 6136,
      "##tein": 6137,
      "poy": 6138,
      "epaillaan": 6139,
      "##osan": 6140,
      "keino": 6141,
      "##istella": 6142,
      "musiik": 6143,
      "onnistui": 6144,
      "##ivuo": 6145,
      "sos": 6146,
      "##paikkaa": 6147,
      "intia": 6148,
      "vastan": 6149,
      "mieluummin": 6150,
      "runko": 6151,
      "##vun": 6152,
      "muistan": 6153,
      "##tune": 6154,
      "aikojen": 6155,
      "jatkoa": 6156,
      "henkilosto": 6157,
      "laakarin": 6158,
      "iski": 6159,
      "##losta": 6160,
      "##ytyi": 6161,
      "bas": 6162,
      "olimme": 6163,
      "##taisi": 6164,
      "app": 6165,
      "##ukes": 6166,
      "pitamaan": 6167,
      "keit": 6168,
      "75": 6169,
      "##hallituksen": 6170,
      "hit": 6171,
      "pelasta": 6172,
      "vaivaa": 6173,
      "vieressa": 6174,
      "loput": 6175,
      "##gra": 6176,
      "seminaa": 6177,
      "##istyksen": 6178,
      "seuraavana": 6179,
      "tyypp": 6180,
      "##jiin": 6181,
      "suosittelen": 6182,
      "##ilo": 6183,
      "huolto": 6184,
      "ari": 6185,
      "##ellani": 6186,
      "vak": 6187,
      "musiikkia": 6188,
      "selviaa": 6189,
      "koulutuksen": 6190,
      "##vero": 6191,
      "tunnista": 6192,
      "##vies": 6193,
      "##ilmoit": 6194,
      "##tsin": 6195,
      "salaa": 6196,
      "haastattelussa": 6197,
      "##istettiin": 6198,
      "sulj": 6199,
      "marja": 6200,
      "harra": 6201,
      "mahdollisuuden": 6202,
      "kreikan": 6203,
      "kell": 6204,
      "##riksi": 6205,
      "olenna": 6206,
      "tosiasia": 6207,
      "irakin": 6208,
      "tavoite": 6209,
      "ron": 6210,
      "##jaks": 6211,
      "don": 6212,
      "heiko": 6213,
      "##markkina": 6214,
      "parhaan": 6215,
      "luulis": 6216,
      "##kolla": 6217,
      "entisen": 6218,
      "##illisesti": 6219,
      "paall": 6220,
      "##koista": 6221,
      "##dista": 6222,
      "luonto": 6223,
      "##gu": 6224,
      "kokous": 6225,
      "kanny": 6226,
      "kiusaa": 6227,
      "##stoin": 6228,
      "siirtaa": 6229,
      "jarjesto": 6230,
      "voisit": 6231,
      "kukka": 6232,
      "kurk": 6233,
      "pyyd": 6234,
      "festi": 6235,
      "##korva": 6236,
      "espanja": 6237,
      "sahkon": 6238,
      "##kri": 6239,
      "johtoon": 6240,
      "hiljaa": 6241,
      "nykyisen": 6242,
      "hevos": 6243,
      "karki": 6244,
      "serb": 6245,
      "huippu": 6246,
      "##lahden": 6247,
      "##isteja": 6248,
      "##kaat": 6249,
      "mielellaan": 6250,
      "enta": 6251,
      "alha": 6252,
      "vang": 6253,
      "##laisiin": 6254,
      "##mistaan": 6255,
      "##teensa": 6256,
      "##karin": 6257,
      "##opimus": 6258,
      "ollessa": 6259,
      "tilanteesta": 6260,
      "##mpien": 6261,
      "kulttuur": 6262,
      "##tamalla": 6263,
      "arab": 6264,
      "kuussa": 6265,
      "ties": 6266,
      "gran": 6267,
      "##vyytta": 6268,
      "windows": 6269,
      "##24": 6270,
      "##mpo": 6271,
      "##isal": 6272,
      "palkkaa": 6273,
      "janne": 6274,
      "##gian": 6275,
      "##ppal": 6276,
      "vita": 6277,
      "##enna": 6278,
      "virta": 6279,
      "eikos": 6280,
      "mie": 6281,
      "klass": 6282,
      "yhdella": 6283,
      "kiusa": 6284,
      "kuud": 6285,
      "##kara": 6286,
      "##tajat": 6287,
      "kome": 6288,
      "##itoa": 6289,
      "##taalla": 6290,
      "##baa": 6291,
      "maarin": 6292,
      "viron": 6293,
      "toimiv": 6294,
      "##idon": 6295,
      "oikeutta": 6296,
      "japani": 6297,
      "##ingas": 6298,
      "##pyora": 6299,
      "kannattaisi": 6300,
      "##teatt": 6301,
      "kirjo": 6302,
      "##ikoita": 6303,
      "##piste": 6304,
      "##oimaan": 6305,
      "onnettomuus": 6306,
      "katka": 6307,
      "oltiin": 6308,
      "##pes": 6309,
      "mad": 6310,
      "soitta": 6311,
      "hetki": 6312,
      "suoritta": 6313,
      "##ikat": 6314,
      "tulk": 6315,
      "tytta": 6316,
      "ehtinyt": 6317,
      "moder": 6318,
      "##ois": 6319,
      "vanhempi": 6320,
      "kirjoittanut": 6321,
      "maksan": 6322,
      "yritti": 6323,
      "##immaisen": 6324,
      "haavoit": 6325,
      "##meren": 6326,
      "ian": 6327,
      "##sani": 6328,
      "##tutkim": 6329,
      "tuloksia": 6330,
      "luoda": 6331,
      "kale": 6332,
      "muusta": 6333,
      "tuhansia": 6334,
      "##ykset": 6335,
      "##isteli": 6336,
      "sus": 6337,
      "##isyyden": 6338,
      "erassa": 6339,
      "ac": 6340,
      "saatavilla": 6341,
      "tota": 6342,
      "hanka": 6343,
      "testi": 6344,
      "vuotiaana": 6345,
      "04": 6346,
      "kasittaa": 6347,
      "##jani": 6348,
      "menevat": 6349,
      "niinpa": 6350,
      "valvon": 6351,
      "cha": 6352,
      "otin": 6353,
      "##oitus": 6354,
      "esiko": 6355,
      "pojat": 6356,
      "saksassa": 6357,
      "##alliset": 6358,
      "johti": 6359,
      "##riaa": 6360,
      "1990": 6361,
      "median": 6362,
      "nykyista": 6363,
      "##vyn": 6364,
      "kilometria": 6365,
      "sivus": 6366,
      "koskevat": 6367,
      "55": 6368,
      "##ryhman": 6369,
      "resep": 6370,
      "tull": 6371,
      "sosia": 6372,
      "##immaksi": 6373,
      "paattyy": 6374,
      "tampereella": 6375,
      "arvost": 6376,
      "post": 6377,
      "netista": 6378,
      "##valtu": 6379,
      "tyl": 6380,
      "tiuka": 6381,
      "mahdollisuudet": 6382,
      "kaytiin": 6383,
      "saati": 6384,
      "pelataan": 6385,
      "##kyky": 6386,
      "##perhe": 6387,
      "ilmais": 6388,
      "##asi": 6389,
      "##telusta": 6390,
      "blu": 6391,
      "##olj": 6392,
      "vanhoja": 6393,
      "puolival": 6394,
      "jaakiekon": 6395,
      "autolla": 6396,
      "tavat": 6397,
      "##vaiheessa": 6398,
      "eka": 6399,
      "##tumisen": 6400,
      "kausi": 6401,
      "yleista": 6402,
      "pelaajat": 6403,
      "hankala": 6404,
      "pyrkii": 6405,
      "nakokulmasta": 6406,
      "itseni": 6407,
      "##tuksessa": 6408,
      "pisteen": 6409,
      "taisi": 6410,
      "##huone": 6411,
      "##loista": 6412,
      "mielenterve": 6413,
      "merkin": 6414,
      "##erissa": 6415,
      "##yrit": 6416,
      "kruun": 6417,
      "moti": 6418,
      "##ineet": 6419,
      "kiir": 6420,
      "joutuvat": 6421,
      "juurikaan": 6422,
      "englanti": 6423,
      "reiss": 6424,
      "eil": 6425,
      "yleinen": 6426,
      "##mes": 6427,
      "kahteen": 6428,
      "##laakari": 6429,
      "vasten": 6430,
      "##ikenteen": 6431,
      "resur": 6432,
      "##eran": 6433,
      "dollaria": 6434,
      "kysymyksia": 6435,
      "millainen": 6436,
      "silmat": 6437,
      "##nella": 6438,
      "liikkeelle": 6439,
      "harv": 6440,
      "##ski": 6441,
      "soittaa": 6442,
      "##kaver": 6443,
      "kayttanyt": 6444,
      "tallaisia": 6445,
      "luvat": 6446,
      "##ikansa": 6447,
      "selvitys": 6448,
      "kuiva": 6449,
      "korostaa": 6450,
      "##lik": 6451,
      "800": 6452,
      "kosket": 6453,
      "vanhat": 6454,
      "kesakuussa": 6455,
      "turvapaikan": 6456,
      "paikkansa": 6457,
      "ajoneuv": 6458,
      "auringon": 6459,
      "kerrosta": 6460,
      "38": 6461,
      "##tuksesta": 6462,
      "heratta": 6463,
      "kylma": 6464,
      "paasy": 6465,
      "tyollista": 6466,
      "##ion": 6467,
      "anne": 6468,
      "tarjon": 6469,
      "##opp": 6470,
      "ensimmaisella": 6471,
      "##elit": 6472,
      "##vuoro": 6473,
      "sope": 6474,
      "2003": 6475,
      "nost": 6476,
      "##ksei": 6477,
      "##insa": 6478,
      "##vaen": 6479,
      "##neensa": 6480,
      "kaava": 6481,
      "evoluut": 6482,
      "##vian": 6483,
      "koi": 6484,
      "rento": 6485,
      "sanottu": 6486,
      "##ukseni": 6487,
      "paikkoja": 6488,
      "##emia": 6489,
      "##innalle": 6490,
      "liki": 6491,
      "prosenttiin": 6492,
      "kristuksen": 6493,
      "tuollainen": 6494,
      "##ismia": 6495,
      "uudessa": 6496,
      "##loja": 6497,
      "yhteyden": 6498,
      "voittoa": 6499,
      "leikki": 6500,
      "bras": 6501,
      "havisi": 6502,
      "fer": 6503,
      "##hoidon": 6504,
      "raiska": 6505,
      "kuluttaja": 6506,
      "##pari": 6507,
      "puutar": 6508,
      "mahdollisuutta": 6509,
      "jate": 6510,
      "homo": 6511,
      "ins": 6512,
      "avio": 6513,
      "##tettiin": 6514,
      "vittu": 6515,
      "ison": 6516,
      "maailmanmesta": 6517,
      "##loa": 6518,
      "petta": 6519,
      "kohden": 6520,
      "far": 6521,
      "##jilta": 6522,
      "##jina": 6523,
      "paan": 6524,
      "##ore": 6525,
      "olevaa": 6526,
      "##ottavaa": 6527,
      "jatkoi": 6528,
      "##kierro": 6529,
      "suurimman": 6530,
      "##lti": 6531,
      "kaydaan": 6532,
      "mielenosoit": 6533,
      "yhteiskunn": 6534,
      "ajoi": 6535,
      "##tumaan": 6536,
      "##pl": 6537,
      "voim": 6538,
      "tunnel": 6539,
      "ymparilla": 6540,
      "asunnon": 6541,
      "pankin": 6542,
      "uskalla": 6543,
      "aho": 6544,
      "vaativat": 6545,
      "37": 6546,
      "web": 6547,
      "puhe": 6548,
      "rut": 6549,
      "egyp": 6550,
      "summa": 6551,
      "julkisen": 6552,
      "yrittanyt": 6553,
      "tammikuussa": 6554,
      "arvioidaan": 6555,
      "useimmat": 6556,
      "suhd": 6557,
      "kreikka": 6558,
      "##jarvi": 6559,
      "uudistu": 6560,
      "tuomioistu": 6561,
      "elo": 6562,
      "menin": 6563,
      "tyr": 6564,
      "##impien": 6565,
      "kesti": 6566,
      "herran": 6567,
      "##uman": 6568,
      "loppuu": 6569,
      "kierroksella": 6570,
      "##osassa": 6571,
      "maria": 6572,
      "hankkeen": 6573,
      "kro": 6574,
      "yllatys": 6575,
      "palkinto": 6576,
      "##ratka": 6577,
      "leir": 6578,
      "viikonloppu": 6579,
      "lintu": 6580,
      "ohjelmassa": 6581,
      "paattyi": 6582,
      "##kunto": 6583,
      "kolmanneksi": 6584,
      "jokaisella": 6585,
      "##ottava": 6586,
      "##gressi": 6587,
      "##istetty": 6588,
      "tiedat": 6589,
      "toimisto": 6590,
      "kuluessa": 6591,
      "##hallitus": 6592,
      "bul": 6593,
      "muuhun": 6594,
      "jaavat": 6595,
      "##hil": 6596,
      "kriitt": 6597,
      "tulkin": 6598,
      "##tusta": 6599,
      "toisesta": 6600,
      "sell": 6601,
      "##isilta": 6602,
      "alenn": 6603,
      "yhdista": 6604,
      "esiintyy": 6605,
      "tarin": 6606,
      "##cia": 6607,
      "finn": 6608,
      "kannan": 6609,
      "##mina": 6610,
      "palv": 6611,
      "manner": 6612,
      "dra": 6613,
      "valtaa": 6614,
      "sang": 6615,
      "pohjoisma": 6616,
      "todellisuudessa": 6617,
      "##vastoin": 6618,
      "riski": 6619,
      "joulukuussa": 6620,
      "yhdistel": 6621,
      "hih": 6622,
      "193": 6623,
      "hakemaan": 6624,
      "##yttavaa": 6625,
      "##isempi": 6626,
      "taide": 6627,
      "##mattomat": 6628,
      "taydellinen": 6629,
      "ampu": 6630,
      "nos": 6631,
      "tutkija": 6632,
      "paaasiassa": 6633,
      "##mmia": 6634,
      "##kky": 6635,
      "varasto": 6636,
      "##isimme": 6637,
      "ensimmaisessa": 6638,
      "toivoo": 6639,
      "maakunta": 6640,
      "tshe": 6641,
      "bio": 6642,
      "kipu": 6643,
      "itsella": 6644,
      "tarvita": 6645,
      "konk": 6646,
      "##mpan": 6647,
      "valittomasti": 6648,
      "##ittaminen": 6649,
      "asioihin": 6650,
      "kynn": 6651,
      "murha": 6652,
      "elan": 6653,
      "kasittel": 6654,
      "##lalle": 6655,
      "##ustettu": 6656,
      "fysi": 6657,
      "myyda": 6658,
      "monip": 6659,
      "lihas": 6660,
      "syyskuussa": 6661,
      "kaymaan": 6662,
      "##lliset": 6663,
      "soh": 6664,
      "hannu": 6665,
      "saamaan": 6666,
      "##ser": 6667,
      "jutun": 6668,
      "##nosta": 6669,
      "taivaa": 6670,
      "tayttaa": 6671,
      "rad": 6672,
      "##huon": 6673,
      "epato": 6674,
      "raskaan": 6675,
      "##rd": 6676,
      "valvo": 6677,
      "##lee": 6678,
      "hyvinvointi": 6679,
      "##kunut": 6680,
      "veikka": 6681,
      "tyoa": 6682,
      "##talon": 6683,
      "##ppiin": 6684,
      "katsel": 6685,
      "opinto": 6686,
      "##elleet": 6687,
      "tapi": 6688,
      "kapin": 6689,
      "##jasen": 6690,
      "maku": 6691,
      "kristin": 6692,
      "vaali": 6693,
      "##olii": 6694,
      "##vata": 6695,
      "sisalle": 6696,
      "##cel": 6697,
      "opettaa": 6698,
      "valittiin": 6699,
      "##kelin": 6700,
      "fre": 6701,
      "##uoto": 6702,
      "sami": 6703,
      "##ranta": 6704,
      "lampi": 6705,
      "kayttamaan": 6706,
      "##kija": 6707,
      "myonta": 6708,
      "hyvalla": 6709,
      "tarkast": 6710,
      "##dion": 6711,
      "##hka": 6712,
      "yllaty": 6713,
      "valista": 6714,
      "paatin": 6715,
      "##palvelut": 6716,
      "##fe": 6717,
      "koulutusta": 6718,
      "pystynyt": 6719,
      "kristillis": 6720,
      "##paivaa": 6721,
      "##kymmenta": 6722,
      "tulleet": 6723,
      "sak": 6724,
      "##kausi": 6725,
      "##puheen": 6726,
      "##yhty": 6727,
      "tulen": 6728,
      "vaikuttavat": 6729,
      "tilanteeseen": 6730,
      "komission": 6731,
      "aalto": 6732,
      "turvaa": 6733,
      "##sseja": 6734,
      "##teria": 6735,
      "toisiaan": 6736,
      "sinusta": 6737,
      "projekti": 6738,
      "kuopion": 6739,
      "otettiin": 6740,
      "hyoty": 6741,
      "hirve": 6742,
      "##kselta": 6743,
      "nosti": 6744,
      "tarkeinta": 6745,
      "valtioneuvoston": 6746,
      "euroon": 6747,
      "##mahdollis": 6748,
      "tuul": 6749,
      "paaosin": 6750,
      "tekisi": 6751,
      "aiheutti": 6752,
      "tytar": 6753,
      "elokuussa": 6754,
      "loppua": 6755,
      "sahkoposti": 6756,
      "kuningas": 6757,
      "palvelun": 6758,
      "sho": 6759,
      "##ikosta": 6760,
      "sulke": 6761,
      "osaksi": 6762,
      "allerg": 6763,
      "##emminkin": 6764,
      "bos": 6765,
      "##istinen": 6766,
      "kalle": 6767,
      "ajoit": 6768,
      "kyseinen": 6769,
      "luin": 6770,
      "##oidaan": 6771,
      "koken": 6772,
      "yhdysvaltojen": 6773,
      "ulkomailla": 6774,
      "painvastoin": 6775,
      "bor": 6776,
      "##listi": 6777,
      "##gat": 6778,
      "kola": 6779,
      "uudesta": 6780,
      "##oll": 6781,
      "##taneen": 6782,
      "epasel": 6783,
      "##kai": 6784,
      "maaliskuussa": 6785,
      "##ikuv": 6786,
      "valla": 6787,
      "tunnusta": 6788,
      "tutustua": 6789,
      "##ght": 6790,
      "ryt": 6791,
      "ehti": 6792,
      "luotetta": 6793,
      "suomalaisista": 6794,
      "##voimien": 6795,
      "johdon": 6796,
      "reag": 6797,
      "ensisija": 6798,
      "##cen": 6799,
      "myohaan": 6800,
      "kehittamis": 6801,
      "harjoitus": 6802,
      "##ustuksen": 6803,
      "hovi": 6804,
      "palkit": 6805,
      "monipuolis": 6806,
      "kayttaja": 6807,
      "##vamma": 6808,
      "markku": 6809,
      "budjet": 6810,
      "##ryhma": 6811,
      "wor": 6812,
      "laaketi": 6813,
      "ajattel": 6814,
      "takuu": 6815,
      "##kirjan": 6816,
      "##koo": 6817,
      "nukkumaan": 6818,
      "kassa": 6819,
      "kl": 6820,
      "tis": 6821,
      "##velv": 6822,
      "##tunn": 6823,
      "tasan": 6824,
      "roko": 6825,
      "hifk": 6826,
      "haav": 6827,
      "liikenteen": 6828,
      "##poja": 6829,
      "hass": 6830,
      "##ikor": 6831,
      "kilpailuky": 6832,
      "2002": 6833,
      "syista": 6834,
      "varti": 6835,
      "ajattele": 6836,
      "art": 6837,
      "haita": 6838,
      "##upaa": 6839,
      "havain": 6840,
      "alueilla": 6841,
      "muttei": 6842,
      "##uuksista": 6843,
      "ilmaiseksi": 6844,
      "kyseena": 6845,
      "muutoin": 6846,
      "soker": 6847,
      "parlamentti": 6848,
      "ehkais": 6849,
      "##ukkaat": 6850,
      "##osof": 6851,
      "buss": 6852,
      "turkin": 6853,
      "##varo": 6854,
      "##ilevat": 6855,
      "tarkkaan": 6856,
      "olle": 6857,
      "otan": 6858,
      "tunnen": 6859,
      "##uudessaan": 6860,
      "tulivat": 6861,
      "turkki": 6862,
      "##tisiv": 6863,
      "##kasi": 6864,
      "##politiikan": 6865,
      "keskustelun": 6866,
      "##lap": 6867,
      "kuului": 6868,
      "luvassa": 6869,
      "tyton": 6870,
      "tavara": 6871,
      "##ster": 6872,
      "seurakunta": 6873,
      "##emisesta": 6874,
      "energiaa": 6875,
      "verkkos": 6876,
      "kunnallis": 6877,
      "##manin": 6878,
      "sanom": 6879,
      "leff": 6880,
      "alalla": 6881,
      "##kkoon": 6882,
      "muistaakseni": 6883,
      "ek": 6884,
      "noi": 6885,
      "instit": 6886,
      "ulkopuolelle": 6887,
      "##ilut": 6888,
      "selvia": 6889,
      "##uille": 6890,
      "2001": 6891,
      "##tamiseen": 6892,
      "liigassa": 6893,
      "pysya": 6894,
      "##rosta": 6895,
      "oi": 6896,
      "thai": 6897,
      "toteut": 6898,
      "ylipaa": 6899,
      "maalivahti": 6900,
      "##kte": 6901,
      "##maat": 6902,
      "pelkkaa": 6903,
      "ennenkuin": 6904,
      "versi": 6905,
      "##uhan": 6906,
      "rooli": 6907,
      "seks": 6908,
      "##ppaletta": 6909,
      "kriti": 6910,
      "myonn": 6911,
      "monella": 6912,
      "puhtaa": 6913,
      "##tro": 6914,
      "naton": 6915,
      "edesta": 6916,
      "metal": 6917,
      "satun": 6918,
      "automaattisesti": 6919,
      "prosentti": 6920,
      "opettaja": 6921,
      "lahetti": 6922,
      "yritin": 6923,
      "##ettavat": 6924,
      "kirjasto": 6925,
      "voittoon": 6926,
      "turhaa": 6927,
      "muisti": 6928,
      "lonto": 6929,
      "kirjoitus": 6930,
      "suva": 6931,
      "vy": 6932,
      "tullaan": 6933,
      "liittyvia": 6934,
      "vauvan": 6935,
      "##utaan": 6936,
      "##ilpail": 6937,
      "nimella": 6938,
      "lausunn": 6939,
      "talossa": 6940,
      "ukraina": 6941,
      "asiana": 6942,
      "##issut": 6943,
      "oireita": 6944,
      "riippumatta": 6945,
      "ydinvoima": 6946,
      "joidenkin": 6947,
      "sate": 6948,
      "luonnollisesti": 6949,
      "##ikoilla": 6950,
      "##ylla": 6951,
      "jarjeston": 6952,
      "teras": 6953,
      "##uotan": 6954,
      "aanta": 6955,
      "kaas": 6956,
      "totuuden": 6957,
      "naki": 6958,
      "##itettiin": 6959,
      "kela": 6960,
      "britti": 6961,
      "suomenkiel": 6962,
      "ympariston": 6963,
      "mielipiteita": 6964,
      "##ukasta": 6965,
      "##utensa": 6966,
      "##tavaa": 6967,
      "todis": 6968,
      "typer": 6969,
      "vuotiaan": 6970,
      "##tori": 6971,
      "kahvi": 6972,
      "tasolle": 6973,
      "##rot": 6974,
      "rav": 6975,
      "kamer": 6976,
      "##yttamaan": 6977,
      "toukokuussa": 6978,
      "pahan": 6979,
      "saun": 6980,
      "laskea": 6981,
      "vaikutti": 6982,
      "asiakkaan": 6983,
      "kirjaa": 6984,
      "##impana": 6985,
      "tarvinnut": 6986,
      "laskee": 6987,
      "##tamisesta": 6988,
      "mas": 6989,
      "vaikkei": 6990,
      "kristitty": 6991,
      "##laisilla": 6992,
      "hoitoa": 6993,
      "##materiaa": 6994,
      "vastoin": 6995,
      "##tamisen": 6996,
      "tulipal": 6997,
      "opti": 6998,
      "juhann": 6999,
      "ete": 7000,
      "nousta": 7001,
      "siirtyi": 7002,
      "vitamiin": 7003,
      "useimmiten": 7004,
      "paivako": 7005,
      "meidat": 7006,
      "riippuen": 7007,
      "col": 7008,
      "villa": 7009,
      "maksetaan": 7010,
      "rakastaa": 7011,
      "kayttavat": 7012,
      "kohdistu": 7013,
      "aud": 7014,
      "tykkaan": 7015,
      "tuntee": 7016,
      "huolehti": 7017,
      "##yhteisty": 7018,
      "juus": 7019,
      "##innot": 7020,
      "rikka": 7021,
      "##ullista": 7022,
      "mainittu": 7023,
      "vanhem": 7024,
      "##kyt": 7025,
      "edellyty": 7026,
      "##utin": 7027,
      "air": 7028,
      "halut": 7029,
      "ohjaus": 7030,
      "kelta": 7031,
      "##tili": 7032,
      "gu": 7033,
      "##laisena": 7034,
      "##tuotan": 7035,
      "kerra": 7036,
      "budjetti": 7037,
      "suju": 7038,
      "kieltaa": 7039,
      "tiennyt": 7040,
      "##ottamaan": 7041,
      "kahdella": 7042,
      "##peri": 7043,
      "haaste": 7044,
      "lausun": 7045,
      "##isku": 7046,
      "demokraa": 7047,
      "sela": 7048,
      "vikaa": 7049,
      "kg": 7050,
      "alkoivat": 7051,
      "##les": 7052,
      "kiertu": 7053,
      "##talous": 7054,
      "kerrottiin": 7055,
      "##ossaan": 7056,
      "##kulttuu": 7057,
      "helpottaa": 7058,
      "heittaa": 7059,
      "ilmaston": 7060,
      "##miina": 7061,
      "kulutus": 7062,
      "enemmankin": 7063,
      "parlamentin": 7064,
      "lahjoit": 7065,
      "ruus": 7066,
      "ihmisista": 7067,
      "alus": 7068,
      "esityksen": 7069,
      "miksei": 7070,
      "valtuus": 7071,
      "huum": 7072,
      "cm": 7073,
      "nuoriso": 7074,
      "##pelin": 7075,
      "##tolla": 7076,
      "poistu": 7077,
      "pohj": 7078,
      "kanssaan": 7079,
      "viita": 7080,
      "##ohja": 7081,
      "##ppien": 7082,
      "##menet": 7083,
      "kisan": 7084,
      "finna": 7085,
      "kansalaisten": 7086,
      "uudella": 7087,
      "uskovat": 7088,
      "katson": 7089,
      "lemp": 7090,
      "##utumis": 7091,
      "vapaasti": 7092,
      "muistel": 7093,
      "suunniteltu": 7094,
      "paattanyt": 7095,
      "itsemur": 7096,
      "##ysa": 7097,
      "##bor": 7098,
      "oikeesti": 7099,
      "oikeaa": 7100,
      "##onti": 7101,
      "oljyn": 7102,
      "viettaa": 7103,
      "mainos": 7104,
      "kasvua": 7105,
      "##alueen": 7106,
      "voimakkaasti": 7107,
      "hinn": 7108,
      "muodos": 7109,
      "##asan": 7110,
      "koy": 7111,
      "##paket": 7112,
      "##itsin": 7113,
      "kiloa": 7114,
      "##tuivat": 7115,
      "sopi": 7116,
      "pienempi": 7117,
      "##paikkoja": 7118,
      "ampuma": 7119,
      "65": 7120,
      "##aal": 7121,
      "pistaa": 7122,
      "##verta": 7123,
      "jasenet": 7124,
      "jumalaa": 7125,
      "##illani": 7126,
      "elek": 7127,
      "##turva": 7128,
      "wal": 7129,
      "##cm": 7130,
      "korko": 7131,
      "periaatteessa": 7132,
      "sanat": 7133,
      "##puhel": 7134,
      "jarr": 7135,
      "miin": 7136,
      "rakennettu": 7137,
      "##rina": 7138,
      "##estaa": 7139,
      "##ckin": 7140,
      "lauri": 7141,
      "tyhjen": 7142,
      "esitti": 7143,
      "yrita": 7144,
      "itsesta": 7145,
      "hyvassa": 7146,
      "luottaa": 7147,
      "joulun": 7148,
      "kamera": 7149,
      "bur": 7150,
      "jalk": 7151,
      "tasavallan": 7152,
      "##elaman": 7153,
      "samanlainen": 7154,
      "##ustusta": 7155,
      "nuoren": 7156,
      "nakojaan": 7157,
      "digita": 7158,
      "aikataul": 7159,
      "kysymykseen": 7160,
      "##isat": 7161,
      "yllapita": 7162,
      "turvapaikanhaki": 7163,
      "##tosta": 7164,
      "ajatuksen": 7165,
      "paata": 7166,
      "##kensa": 7167,
      "##tumista": 7168,
      "vastaavan": 7169,
      "espoon": 7170,
      "avat": 7171,
      "moit": 7172,
      "merkittavasti": 7173,
      "vaikutusta": 7174,
      "hintaan": 7175,
      "kappaletta": 7176,
      "velka": 7177,
      "##oaan": 7178,
      "valais": 7179,
      "yhteistyossa": 7180,
      "poikkea": 7181,
      "##viraston": 7182,
      "##strom": 7183,
      "annan": 7184,
      "##telemassa": 7185,
      "vaaleissa": 7186,
      "jaksan": 7187,
      "tavallista": 7188,
      "siivo": 7189,
      "marraskuussa": 7190,
      "##eteen": 7191,
      "leijon": 7192,
      "##diin": 7193,
      "tarkeita": 7194,
      "##imies": 7195,
      "##kastus": 7196,
      "ottaen": 7197,
      "##bje": 7198,
      "metsan": 7199,
      "##eat": 7200,
      "lumi": 7201,
      "##utumisen": 7202,
      "tyosta": 7203,
      "kaikkiin": 7204,
      "##ellin": 7205,
      "kyky": 7206,
      "raj": 7207,
      "##edot": 7208,
      "spe": 7209,
      "##olliset": 7210,
      "##ohjelman": 7211,
      "into": 7212,
      "portu": 7213,
      "vaalit": 7214,
      "lahelle": 7215,
      "verkkosiv": 7216,
      "tunnetaan": 7217,
      "viitta": 7218,
      "##uuksiin": 7219,
      "oire": 7220,
      "##ottelussa": 7221,
      "##mun": 7222,
      "viiva": 7223,
      "meh": 7224,
      "edustajat": 7225,
      "valt": 7226,
      "##voimaa": 7227,
      "##hankke": 7228,
      "pista": 7229,
      "ajassa": 7230,
      "roma": 7231,
      "sallit": 7232,
      "##ohjelma": 7233,
      "puolelta": 7234,
      "haku": 7235,
      "suojaa": 7236,
      "isoja": 7237,
      "paivat": 7238,
      "##ikoko": 7239,
      "osallistuu": 7240,
      "##holi": 7241,
      "##ologian": 7242,
      "##iminnan": 7243,
      "vaihtoehtoja": 7244,
      "cor": 7245,
      "lahetys": 7246,
      "virk": 7247,
      "harha": 7248,
      "##oppa": 7249,
      "oppila": 7250,
      "japanin": 7251,
      "kykene": 7252,
      "kuunnella": 7253,
      "isot": 7254,
      "tyontekijoiden": 7255,
      "puolia": 7256,
      "##ikes": 7257,
      "tarkasti": 7258,
      "##laisissa": 7259,
      "nousu": 7260,
      "##isuudesta": 7261,
      "verot": 7262,
      "valvonta": 7263,
      "aptee": 7264,
      "tehtya": 7265,
      "##unas": 7266,
      "##kaynti": 7267,
      "tyonantaja": 7268,
      "##emmassa": 7269,
      "portug": 7270,
      "menetel": 7271,
      "ori": 7272,
      "evankeli": 7273,
      "tiedotteessa": 7274,
      "markan": 7275,
      "flo": 7276,
      "spor": 7277,
      "piis": 7278,
      "tietyn": 7279,
      "pyhan": 7280,
      "tekemis": 7281,
      "sellaiset": 7282,
      "keskuudessa": 7283,
      "kertoivat": 7284,
      "€": 7285,
      "tunteita": 7286,
      "useamman": 7287,
      "porin": 7288,
      "valio": 7289,
      "korean": 7290,
      "erilainen": 7291,
      "##opol": 7292,
      "viimeiset": 7293,
      "latti": 7294,
      "suhteellisen": 7295,
      "##ikoista": 7296,
      "syksyna": 7297,
      "heraa": 7298,
      "##maksa": 7299,
      "onnellinen": 7300,
      "tyohon": 7301,
      "turhaan": 7302,
      "##rannan": 7303,
      "##opi": 7304,
      "##ostusta": 7305,
      "vielakaan": 7306,
      "neuvo": 7307,
      "hinnan": 7308,
      "##reille": 7309,
      "##uttaminen": 7310,
      "vantaan": 7311,
      "aloin": 7312,
      "##siir": 7313,
      "jarkea": 7314,
      "##fan": 7315,
      "nars": 7316,
      "sydamen": 7317,
      "kokoonpan": 7318,
      "hyokkays": 7319,
      "##ojaan": 7320,
      "automaa": 7321,
      "abor": 7322,
      "##gaan": 7323,
      "poyta": 7324,
      "##pohja": 7325,
      "alkua": 7326,
      "menne": 7327,
      "ihmisoike": 7328,
      "kierroksen": 7329,
      "vakuut": 7330,
      "halonen": 7331,
      "henkea": 7332,
      "eron": 7333,
      "siemen": 7334,
      "yllattavan": 7335,
      "luona": 7336,
      "##juus": 7337,
      "samoja": 7338,
      "##hiih": 7339,
      "syyria": 7340,
      "paskaa": 7341,
      "varmistaa": 7342,
      "een": 7343,
      "jalkapallon": 7344,
      "##iro": 7345,
      "##neksen": 7346,
      "osallistui": 7347,
      "keksin": 7348,
      "loydat": 7349,
      "verkossa": 7350,
      "##uneen": 7351,
      "vedon": 7352,
      "turhan": 7353,
      "laitoin": 7354,
      "kyseisen": 7355,
      "halusin": 7356,
      "##opet": 7357,
      "sua": 7358,
      "pitaisiko": 7359,
      "oven": 7360,
      "kukin": 7361,
      "tps": 7362,
      "195": 7363,
      "##skin": 7364,
      "mate": 7365,
      "loysin": 7366,
      "oulu": 7367,
      "tukee": 7368,
      "alkoholi": 7369,
      "cup": 7370,
      "torkea": 7371,
      "##koihin": 7372,
      "plan": 7373,
      "ihmeessa": 7374,
      "##palkin": 7375,
      "tre": 7376,
      "##sse": 7377,
      "tapauksissa": 7378,
      "uun": 7379,
      "##zin": 7380,
      "enemmisto": 7381,
      "vr": 7382,
      "suorastaan": 7383,
      "paasevat": 7384,
      "##joihin": 7385,
      "geen": 7386,
      "lammin": 7387,
      "osana": 7388,
      "##eho": 7389,
      "kohde": 7390,
      "vuodelta": 7391,
      "##ikymmenta": 7392,
      "oppim": 7393,
      "sisar": 7394,
      "kaikessa": 7395,
      "yritetaan": 7396,
      "meinaa": 7397,
      "valhe": 7398,
      "turussa": 7399,
      "sopivat": 7400,
      "lampotila": 7401,
      "mahdotonta": 7402,
      "bro": 7403,
      "tran": 7404,
      "totu": 7405,
      "toimimaan": 7406,
      "##lisa": 7407,
      "##ppuun": 7408,
      "mag": 7409,
      "vaasan": 7410,
      "##onia": 7411,
      "maksu": 7412,
      "##unnittel": 7413,
      "putin": 7414,
      "bis": 7415,
      "lis": 7416,
      "syv": 7417,
      "odotta": 7418,
      "##ner": 7419,
      "09": 7420,
      "taul": 7421,
      "##lannissa": 7422,
      "tuleva": 7423,
      "kilpailussa": 7424,
      "onnea": 7425,
      "lokakuussa": 7426,
      "jur": 7427,
      "kori": 7428,
      "soma": 7429,
      "unel": 7430,
      "puoleen": 7431,
      "##ilis": 7432,
      "syot": 7433,
      "palkinnon": 7434,
      "##kani": 7435,
      "miljoona": 7436,
      "monin": 7437,
      "tuotteet": 7438,
      "katsoi": 7439,
      "puheenjohtajan": 7440,
      "rajat": 7441,
      "viis": 7442,
      "syyrian": 7443,
      "paivitta": 7444,
      "##ellessa": 7445,
      "##ole": 7446,
      "##hing": 7447,
      "ruv": 7448,
      "torma": 7449,
      "uskova": 7450,
      "aikoihin": 7451,
      "uutiset": 7452,
      "mak": 7453,
      "##ci": 7454,
      "##lund": 7455,
      "##ordin": 7456,
      "konkreet": 7457,
      "yhdysvalta": 7458,
      "entisesta": 7459,
      "heija": 7460,
      "kuukaudessa": 7461,
      "kih": 7462,
      "miehelle": 7463,
      "##ikkeita": 7464,
      "suunnit": 7465,
      "yhteista": 7466,
      "astetta": 7467,
      "elamansa": 7468,
      "tarja": 7469,
      "191": 7470,
      "##untain": 7471,
      "tietavat": 7472,
      "kahdessa": 7473,
      "vaatteita": 7474,
      "eurolla": 7475,
      "puun": 7476,
      "##maista": 7477,
      "ulkomaan": 7478,
      "kokko": 7479,
      "tervetul": 7480,
      "koet": 7481,
      "##messa": 7482,
      "paks": 7483,
      "liikkeen": 7484,
      "kip": 7485,
      "jum": 7486,
      "suurlah": 7487,
      "helpompi": 7488,
      "pitkaaika": 7489,
      "##ji": 7490,
      "vaikuta": 7491,
      "antavat": 7492,
      "pani": 7493,
      "nayttavat": 7494,
      "valttaa": 7495,
      "lopet": 7496,
      "avusta": 7497,
      "tutkimuksessa": 7498,
      "##ivel": 7499,
      "ennaty": 7500,
      "laite": 7501,
      "##ide": 7502,
      "##ehen": 7503,
      "uskonto": 7504,
      "rat": 7505,
      "##impaan": 7506,
      "44": 7507,
      "paluu": 7508,
      "home": 7509,
      "mielikuv": 7510,
      "##udeksi": 7511,
      "osaan": 7512,
      "keskustassa": 7513,
      "myonte": 7514,
      "silmin": 7515,
      "kirjoita": 7516,
      "muutosta": 7517,
      "lainaa": 7518,
      "asioissa": 7519,
      "##vinen": 7520,
      "##itellen": 7521,
      "##valtion": 7522,
      "blogin": 7523,
      "rom": 7524,
      "huija": 7525,
      "##wn": 7526,
      "aihetta": 7527,
      "can": 7528,
      "lisatietoja": 7529,
      "asumis": 7530,
      "alkoholin": 7531,
      "satunna": 7532,
      "##jarjestelma": 7533,
      "nopeammin": 7534,
      "erkki": 7535,
      "hed": 7536,
      "vakava": 7537,
      "poyd": 7538,
      "merkkia": 7539,
      "##honen": 7540,
      "city": 7541,
      "reilu": 7542,
      "kuvata": 7543,
      "edistaa": 7544,
      "hyvaksya": 7545,
      "##oilta": 7546,
      "kuolle": 7547,
      "saataisiin": 7548,
      "##iver": 7549,
      "tuhoa": 7550,
      "esitetty": 7551,
      "muutokset": 7552,
      "alex": 7553,
      "kama": 7554,
      "valtakunnan": 7555,
      "tyovoima": 7556,
      "ajel": 7557,
      "tottakai": 7558,
      "saamme": 7559,
      "helmikuussa": 7560,
      "tosissaan": 7561,
      "tuhat": 7562,
      "##osentti": 7563,
      "nen": 7564,
      "##miesten": 7565,
      "##untaa": 7566,
      "asettaa": 7567,
      "loppuot": 7568,
      "monissa": 7569,
      "##sasta": 7570,
      "##talouden": 7571,
      "talta": 7572,
      "jalat": 7573,
      "ettet": 7574,
      "##oloa": 7575,
      "kurssi": 7576,
      "yt": 7577,
      "##ilyn": 7578,
      "gro": 7579,
      "##ux": 7580,
      "tarkoitta": 7581,
      "antamaan": 7582,
      "kavely": 7583,
      "700": 7584,
      "rakkautta": 7585,
      "vakisin": 7586,
      "##ukseksi": 7587,
      "##oitsi": 7588,
      "##vilta": 7589,
      "##tumis": 7590,
      "saattoi": 7591,
      "talvella": 7592,
      "hienosti": 7593,
      "lukko": 7594,
      "##entaa": 7595,
      "liikevaihto": 7596,
      "##luu": 7597,
      "tavallinen": 7598,
      "ammattikorkea": 7599,
      "tapahtuman": 7600,
      "teollisuuden": 7601,
      "##cks": 7602,
      "##vid": 7603,
      "39": 7604,
      "##uotta": 7605,
      "cla": 7606,
      "muualle": 7607,
      "mittaa": 7608,
      "maatalous": 7609,
      "reilusti": 7610,
      "by": 7611,
      "hakee": 7612,
      "saavut": 7613,
      "samana": 7614,
      "##iinia": 7615,
      "korjaus": 7616,
      "##stosta": 7617,
      "##htanut": 7618,
      "afrikan": 7619,
      "za": 7620,
      "valtava": 7621,
      "myrk": 7622,
      "yhtakkia": 7623,
      "##kasvat": 7624,
      "##sarjan": 7625,
      "saas": 7626,
      "##iluun": 7627,
      "kenen": 7628,
      "##ssiin": 7629,
      "painaa": 7630,
      "synn": 7631,
      "kehitysta": 7632,
      "##kkari": 7633,
      "vaesto": 7634,
      "chr": 7635,
      "kutsutaan": 7636,
      "##joki": 7637,
      "##ketaan": 7638,
      "ovatko": 7639,
      "kop": 7640,
      "##istelu": 7641,
      "vira": 7642,
      "ilmoittanut": 7643,
      "##reissa": 7644,
      "kasvi": 7645,
      "rauhoit": 7646,
      "ip": 7647,
      "##dina": 7648,
      "soini": 7649,
      "haitta": 7650,
      "tyyliin": 7651,
      "ammattita": 7652,
      "koro": 7653,
      "kulut": 7654,
      "pohti": 7655,
      "vastuun": 7656,
      "##eltiin": 7657,
      "##naan": 7658,
      "lahety": 7659,
      "sosiaalit": 7660,
      "##uki": 7661,
      "##eeseen": 7662,
      "##kkosen": 7663,
      "##tieto": 7664,
      "##ksemme": 7665,
      "asteen": 7666,
      "omakoti": 7667,
      "oik": 7668,
      "mahtuu": 7669,
      "##ppua": 7670,
      "##ppoja": 7671,
      "liisa": 7672,
      "##stan": 7673,
      "yhdistyksen": 7674,
      "##sl": 7675,
      "napa": 7676,
      "mitas": 7677,
      "lattia": 7678,
      "uransa": 7679,
      "tuomit": 7680,
      "talven": 7681,
      "edellinen": 7682,
      "sopivan": 7683,
      "monessa": 7684,
      "##tensa": 7685,
      "taipu": 7686,
      "jutut": 7687,
      "##mpana": 7688,
      "jarjesty": 7689,
      "##kkojen": 7690,
      "erilaiset": 7691,
      "##kayn": 7692,
      "sovi": 7693,
      "tab": 7694,
      "##ustelu": 7695,
      "hauska": 7696,
      "taloudellis": 7697,
      "##ikoja": 7698,
      "##eraan": 7699,
      "42": 7700,
      "julkaistu": 7701,
      "hiukset": 7702,
      "kesakuun": 7703,
      "merkitsee": 7704,
      "##taso": 7705,
      "paatoksia": 7706,
      "suoritus": 7707,
      "##ssaan": 7708,
      "##veri": 7709,
      "##bet": 7710,
      "tarpeet": 7711,
      "hanke": 7712,
      "asenne": 7713,
      "kehityksen": 7714,
      "ajatellut": 7715,
      "dip": 7716,
      "psykolog": 7717,
      "ruoan": 7718,
      "##jarjestelman": 7719,
      "lata": 7720,
      "nykya": 7721,
      "mallin": 7722,
      "set": 7723,
      "ongelmaa": 7724,
      "##valmis": 7725,
      "##vaara": 7726,
      "keskittya": 7727,
      "##ons": 7728,
      "kaynnissa": 7729,
      "kisat": 7730,
      "toivoa": 7731,
      "luokkaa": 7732,
      "infor": 7733,
      "matk": 7734,
      "vaalien": 7735,
      "olisit": 7736,
      "##kaytta": 7737,
      "##vatiiv": 7738,
      "##udelle": 7739,
      "moneen": 7740,
      "##opin": 7741,
      "lahtokohta": 7742,
      "##gor": 7743,
      "omiin": 7744,
      "##vih": 7745,
      "kannatus": 7746,
      "nieminen": 7747,
      "duun": 7748,
      "##tettava": 7749,
      "##rille": 7750,
      "ilmoitus": 7751,
      "poliisia": 7752,
      "##ikoina": 7753,
      "talousa": 7754,
      "katoa": 7755,
      "laitos": 7756,
      "syomaan": 7757,
      "pakolais": 7758,
      "yksityisko": 7759,
      "itselle": 7760,
      "elektr": 7761,
      "##pus": 7762,
      "##pahtu": 7763,
      "markkinoilla": 7764,
      "##hdys": 7765,
      "##maaran": 7766,
      "##ssissa": 7767,
      "kateen": 7768,
      "meno": 7769,
      "iloinen": 7770,
      "avain": 7771,
      "minulta": 7772,
      "valein": 7773,
      "##tiaan": 7774,
      "##telya": 7775,
      "lahia": 7776,
      "maaliin": 7777,
      "peruste": 7778,
      "##oika": 7779,
      "laihd": 7780,
      "pomm": 7781,
      "##kuljet": 7782,
      "##desta": 7783,
      "##heim": 7784,
      "##war": 7785,
      "oop": 7786,
      "palata": 7787,
      "kertaan": 7788,
      "viesteja": 7789,
      "##deja": 7790,
      "kadon": 7791,
      "tekivat": 7792,
      "sivuilla": 7793,
      "##mmaa": 7794,
      "edelta": 7795,
      "oba": 7796,
      "nat": 7797,
      "##oinut": 7798,
      "##lailla": 7799,
      "war": 7800,
      "vaaditaan": 7801,
      "arvoa": 7802,
      "arvioida": 7803,
      "ruokavali": 7804,
      "kemi": 7805,
      "##kean": 7806,
      "nik": 7807,
      "kentta": 7808,
      "##ilanne": 7809,
      "##jk": 7810,
      "##teille": 7811,
      "pikkuhil": 7812,
      "rekisteroit": 7813,
      "##vaaleissa": 7814,
      "tyyppi": 7815,
      "##joissa": 7816,
      "hp": 7817,
      "risto": 7818,
      "##ettaan": 7819,
      "maahanmuutto": 7820,
      "sanoja": 7821,
      "tiella": 7822,
      "ulottu": 7823,
      "kirjoitettu": 7824,
      "versio": 7825,
      "##kkana": 7826,
      "was": 7827,
      "tupako": 7828,
      "##italo": 7829,
      "##ean": 7830,
      "jaivat": 7831,
      "##mati": 7832,
      "viikonlopun": 7833,
      "sip": 7834,
      "toivotaan": 7835,
      "tyyli": 7836,
      "heinakuussa": 7837,
      "##alleen": 7838,
      "tapahtumia": 7839,
      "saannollisesti": 7840,
      "aiempaa": 7841,
      "##allisten": 7842,
      "tutkia": 7843,
      "ruut": 7844,
      "brys": 7845,
      "##oppi": 7846,
      "laitetaan": 7847,
      "ohjelmaa": 7848,
      "##lamm": 7849,
      "pallon": 7850,
      "varrella": 7851,
      "##muksesta": 7852,
      "hann": 7853,
      "seiso": 7854,
      "tri": 7855,
      "kahdesta": 7856,
      "puolueet": 7857,
      "ehkapa": 7858,
      "torni": 7859,
      "pikkuhiljaa": 7860,
      "innos": 7861,
      "##ald": 7862,
      "veli": 7863,
      "jalan": 7864,
      "valinen": 7865,
      "tuen": 7866,
      "petri": 7867,
      "harjoitta": 7868,
      "paatosta": 7869,
      "##kkua": 7870,
      "hallussa": 7871,
      "##paino": 7872,
      "loukkaa": 7873,
      "##laisuuden": 7874,
      "viihd": 7875,
      "kasitta": 7876,
      "paaministerin": 7877,
      "##mppani": 7878,
      "nuoris": 7879,
      "vertaa": 7880,
      "tukia": 7881,
      "##kesi": 7882,
      "##uksesi": 7883,
      "ennatys": 7884,
      "kiekko": 7885,
      "sko": 7886,
      "paikasta": 7887,
      "muualta": 7888,
      "venalais": 7889,
      "##koski": 7890,
      "##tisia": 7891,
      "filosof": 7892,
      "vaatteet": 7893,
      "akkia": 7894,
      "##bert": 7895,
      "##koilla": 7896,
      "nopeus": 7897,
      "ilmaan": 7898,
      "##dac": 7899,
      "##toni": 7900,
      "paikat": 7901,
      "##ityksella": 7902,
      "kevaana": 7903,
      "varmaankin": 7904,
      "##tyota": 7905,
      "nil": 7906,
      "tohto": 7907,
      "tart": 7908,
      "43": 7909,
      "##uraa": 7910,
      "##main": 7911,
      "mallia": 7912,
      "syyskuun": 7913,
      "##ley": 7914,
      "raskaa": 7915,
      "pidetty": 7916,
      "##itsem": 7917,
      "jousta": 7918,
      "suin": 7919,
      "onnellis": 7920,
      "##voja": 7921,
      "pell": 7922,
      "##isuuteen": 7923,
      "samasta": 7924,
      "##tasa": 7925,
      "##kunnasta": 7926,
      "suorittaa": 7927,
      "lada": 7928,
      "##rek": 7929,
      "lauantain": 7930,
      "johtuen": 7931,
      "##tional": 7932,
      "huma": 7933,
      "##siin": 7934,
      "todeta": 7935,
      "paastaan": 7936,
      "kirjailija": 7937,
      "tyontekija": 7938,
      "##ittelemaan": 7939,
      "##ous": 7940,
      "lemm": 7941,
      "tyyn": 7942,
      "todettu": 7943,
      "##istua": 7944,
      "sairaala": 7945,
      "surmansa": 7946,
      "##yhdistys": 7947,
      "kayty": 7948,
      "##kysymy": 7949,
      "monien": 7950,
      "reit": 7951,
      "tyontekijat": 7952,
      "sekaisin": 7953,
      "vauri": 7954,
      "##ish": 7955,
      "neljas": 7956,
      "teemu": 7957,
      "vaaraa": 7958,
      "max": 7959,
      "palstan": 7960,
      "valtaosa": 7961,
      "harva": 7962,
      "voimaa": 7963,
      "##aalinen": 7964,
      "kustan": 7965,
      "toimesta": 7966,
      "martti": 7967,
      "alunperin": 7968,
      "##ihenkil": 7969,
      "toisena": 7970,
      "##eeta": 7971,
      "loukkaantui": 7972,
      "luonte": 7973,
      "keskimaara": 7974,
      "##utuivat": 7975,
      "syrj": 7976,
      "penn": 7977,
      "##tini": 7978,
      "yhdistaa": 7979,
      "kaanty": 7980,
      "todistaa": 7981,
      "##kad": 7982,
      "##tola": 7983,
      "##emies": 7984,
      "48": 7985,
      "yllattaen": 7986,
      "##bergin": 7987,
      "pelaamaan": 7988,
      "vastauksia": 7989,
      "kielletty": 7990,
      "hintaa": 7991,
      "useat": 7992,
      "clin": 7993,
      "mikro": 7994,
      "##kaas": 7995,
      "yrittaja": 7996,
      "tarkista": 7997,
      "##ida": 7998,
      "arkkit": 7999,
      "##opaa": 8000,
      "johdosta": 8001,
      "##itoim": 8002,
      "tappaa": 8003,
      "##ymys": 8004,
      "mestaruus": 8005,
      "siuna": 8006,
      "kayvat": 8007,
      "kommentti": 8008,
      "loyda": 8009,
      "yleiso": 8010,
      "erillis": 8011,
      "mahdollistaa": 8012,
      "edustaa": 8013,
      "sopiv": 8014,
      "##tellaan": 8015,
      "henkilot": 8016,
      "vaihtoehd": 8017,
      "ilkka": 8018,
      "leikkaa": 8019,
      "mielipite": 8020,
      "vanhaa": 8021,
      "##telijat": 8022,
      "helsinkiin": 8023,
      "soitti": 8024,
      "lapselle": 8025,
      "hier": 8026,
      "nakoinen": 8027,
      "ajoissa": 8028,
      "nahtiin": 8029,
      "minkaanlaista": 8030,
      "tutkijat": 8031,
      "##ittivat": 8032,
      "autoja": 8033,
      "##uttavaa": 8034,
      "ihon": 8035,
      "##istojen": 8036,
      "##laisella": 8037,
      "vertail": 8038,
      "ajattelee": 8039,
      "tyhma": 8040,
      "tason": 8041,
      "huhtikuussa": 8042,
      "vastausta": 8043,
      "41": 8044,
      "jokaiselle": 8045,
      "aktiivisesti": 8046,
      "##oissaan": 8047,
      "valtuusto": 8048,
      "kuljettaja": 8049,
      "kaytettavissa": 8050,
      "##seura": 8051,
      "gall": 8052,
      "od": 8053,
      "suositu": 8054,
      "ahven": 8055,
      "tyomarkkina": 8056,
      "iho": 8057,
      "##maani": 8058,
      "ajaksi": 8059,
      "kahdeksa": 8060,
      "##koita": 8061,
      "##kunsa": 8062,
      "##matkan": 8063,
      "tytot": 8064,
      "vastaanotto": 8065,
      "bil": 8066,
      "matala": 8067,
      "jarven": 8068,
      "alkuperainen": 8069,
      "kasikir": 8070,
      "saimme": 8071,
      "##vaun": 8072,
      "useammin": 8073,
      "kunnat": 8074,
      "kierra": 8075,
      "yliopistossa": 8076,
      "assa": 8077,
      "espoo": 8078,
      "poikki": 8079,
      "willia": 8080,
      "##viaa": 8081,
      "dema": 8082,
      "##unaa": 8083,
      "ruotsinkiel": 8084,
      "sade": 8085,
      "aseman": 8086,
      "toiminnasta": 8087,
      "vihaa": 8088,
      "tekstia": 8089,
      "tyontekijaa": 8090,
      "##emmasta": 8091,
      "aarimmaisen": 8092,
      "pirkan": 8093,
      "tuollaista": 8094,
      "johtajan": 8095,
      "##eloku": 8096,
      "johdolla": 8097,
      "miettimaan": 8098,
      "kanada": 8099,
      "vastaavat": 8100,
      "hallinnon": 8101,
      "##sissa": 8102,
      "sairasta": 8103,
      "paken": 8104,
      "46": 8105,
      "sijoittui": 8106,
      "vastuuta": 8107,
      "lum": 8108,
      "punainen": 8109,
      "jakel": 8110,
      "pitkat": 8111,
      "huolissaan": 8112,
      "kimmo": 8113,
      "ystavia": 8114,
      "mukanaan": 8115,
      "muistutti": 8116,
      "hitaasti": 8117,
      "##ikaal": 8118,
      "##dor": 8119,
      "matkaan": 8120,
      "selvityksen": 8121,
      "##ukot": 8122,
      "##vala": 8123,
      "liittyen": 8124,
      "vastaavaa": 8125,
      "##kkuus": 8126,
      "miljardin": 8127,
      "##simme": 8128,
      "ennalta": 8129,
      "##udin": 8130,
      "hull": 8131,
      "paasin": 8132,
      "vl": 8133,
      "##yksessa": 8134,
      "vahenn": 8135,
      "kaytti": 8136,
      "##litse": 8137,
      "osannut": 8138,
      "instituut": 8139,
      "##iat": 8140,
      "##uksille": 8141,
      "vaatia": 8142,
      "fakta": 8143,
      "##mmalla": 8144,
      "karajaoikeus": 8145,
      "hampa": 8146,
      "ohjeet": 8147,
      "##iainen": 8148,
      "valmiina": 8149,
      "poin": 8150,
      "tallaisen": 8151,
      "##nal": 8152,
      "##ander": 8153,
      "##laaju": 8154,
      "haka": 8155,
      "sahkopost": 8156,
      "aanestys": 8157,
      "tapahtua": 8158,
      "keitti": 8159,
      "##du": 8160,
      "##olon": 8161,
      "kortti": 8162,
      "martin": 8163,
      "kiito": 8164,
      "enaan": 8165,
      "puolivali": 8166,
      "luen": 8167,
      "isanta": 8168,
      "##yteen": 8169,
      "iden": 8170,
      "##kkeet": 8171,
      "palvelujen": 8172,
      "parja": 8173,
      "##tajien": 8174,
      "kerrallaan": 8175,
      "kasitellaan": 8176,
      "valuutta": 8177,
      "uskotaan": 8178,
      "diplo": 8179,
      "##ktorin": 8180,
      "saisin": 8181,
      "hope": 8182,
      "paivina": 8183,
      "pitaako": 8184,
      "##yon": 8185,
      "##otin": 8186,
      "kilpailut": 8187,
      "ohjeita": 8188,
      "##umaan": 8189,
      "naet": 8190,
      "redac": 8191,
      "redacted": 8192,
      "##veden": 8193,
      "toisistaan": 8194,
      "ihmiselle": 8195,
      "keuh": 8196,
      "myydaan": 8197,
      "vietta": 8198,
      "##koit": 8199,
      "##tunen": 8200,
      "##istamaan": 8201,
      "hyv": 8202,
      "human": 8203,
      "##hinta": 8204,
      "luteri": 8205,
      "rakenne": 8206,
      "jalkapall": 8207,
      "tavaraa": 8208,
      "autojen": 8209,
      "##erve": 8210,
      "rakast": 8211,
      "##uutena": 8212,
      "konkur": 8213,
      "##eaa": 8214,
      "juhani": 8215,
      "lainsaadan": 8216,
      "korr": 8217,
      "reilun": 8218,
      "sunnuntain": 8219,
      "##mita": 8220,
      "enintaan": 8221,
      "liikkuu": 8222,
      "senkin": 8223,
      "gar": 8224,
      "tolla": 8225,
      "sijasta": 8226,
      "perustaa": 8227,
      "autossa": 8228,
      "ylipaataan": 8229,
      "ajoin": 8230,
      "hanelta": 8231,
      "suosittu": 8232,
      "pane": 8233,
      "##emmalta": 8234,
      "vinkkeja": 8235,
      "##ikympp": 8236,
      "sanoen": 8237,
      "toisinaan": 8238,
      "##vaaran": 8239,
      "aanen": 8240,
      "##tilaat": 8241,
      "##vaatte": 8242,
      "velvoit": 8243,
      "##ino": 8244,
      "##anneet": 8245,
      "##uusa": 8246,
      "selvitta": 8247,
      "##kosken": 8248,
      "valkoinen": 8249,
      "paul": 8250,
      "enimma": 8251,
      "prot": 8252,
      "viitsi": 8253,
      "##qu": 8254,
      "##tuvan": 8255,
      "##not": 8256,
      "kaikkialla": 8257,
      "runsaat": 8258,
      "yhdesta": 8259,
      "paivalla": 8260,
      "laak": 8261,
      "tuloksen": 8262,
      "keskiviikko": 8263,
      "##lahti": 8264,
      "loppujen": 8265,
      "isann": 8266,
      "kasitella": 8267,
      "tamakin": 8268,
      "paatoim": 8269,
      "tayteen": 8270,
      "valiaika": 8271,
      "liity": 8272,
      "##imella": 8273,
      "sadan": 8274,
      "parhaimmillaan": 8275,
      "irr": 8276,
      "rikollis": 8277,
      "huippuko": 8278,
      "poten": 8279,
      "puhut": 8280,
      "vaikeuksia": 8281,
      "katsella": 8282,
      "##valine": 8283,
      "##meja": 8284,
      "rangaistus": 8285,
      "tehokkaa": 8286,
      "gi": 8287,
      "##rid": 8288,
      "seppo": 8289,
      "taiva": 8290,
      "##lus": 8291,
      "##voitta": 8292,
      "gr": 8293,
      "syita": 8294,
      "vuodeksi": 8295,
      "olisikin": 8296,
      "1999": 8297,
      "korkeintaan": 8298,
      "##seman": 8299,
      "johtava": 8300,
      "sanovat": 8301,
      "kaupassa": 8302,
      "pienella": 8303,
      "##eriin": 8304,
      "myoten": 8305,
      "##umia": 8306,
      "kissan": 8307,
      "haluamme": 8308,
      "kysyi": 8309,
      "##toivat": 8310,
      "##toiminnan": 8311,
      "##konsa": 8312,
      "##yttanyt": 8313,
      "lasketaan": 8314,
      "seurakunnan": 8315,
      "ihmisilla": 8316,
      "unohtaa": 8317,
      "koulutta": 8318,
      "##telivat": 8319,
      "maha": 8320,
      "vailla": 8321,
      "muna": 8322,
      "ukko": 8323,
      "kohtalo": 8324,
      "##imesta": 8325,
      "##kimi": 8326,
      "pariin": 8327,
      "paljonko": 8328,
      "blogi": 8329,
      "ral": 8330,
      "aste": 8331,
      "voisiko": 8332,
      "##kirjoitta": 8333,
      "hankinta": 8334,
      "##paall": 8335,
      "saapui": 8336,
      "korjata": 8337,
      "##tieteen": 8338,
      "kaden": 8339,
      "suunnilleen": 8340,
      "##taansa": 8341,
      "##raja": 8342,
      "laitan": 8343,
      "barcel": 8344,
      "teknologia": 8345,
      "##erassa": 8346,
      "twit": 8347,
      "suklaa": 8348,
      "maailmancupin": 8349,
      "##10": 8350,
      "kra": 8351,
      "museo": 8352,
      "tyovaen": 8353,
      "parempia": 8354,
      "helvetin": 8355,
      "laji": 8356,
      "nimessa": 8357,
      "puolilla": 8358,
      "maailmaan": 8359,
      "markkinoille": 8360,
      "uskonnon": 8361,
      "ymmartanyt": 8362,
      "levia": 8363,
      "##ikenne": 8364,
      "lisatiedot": 8365,
      "varapuheen": 8366,
      "ratkaisuja": 8367,
      "tarken": 8368,
      "entisestaan": 8369,
      "palasi": 8370,
      "idio": 8371,
      "sisalto": 8372,
      "koiraa": 8373,
      "##iskel": 8374,
      "sahkoa": 8375,
      "micha": 8376,
      "syyttaa": 8377,
      "hedelma": 8378,
      "##etu": 8379,
      "hoidon": 8380,
      "varattu": 8381,
      "char": 8382,
      "yhdistys": 8383,
      "havia": 8384,
      "naen": 8385,
      "vastaamaan": 8386,
      "kovan": 8387,
      "##stusta": 8388,
      "saast": 8389,
      "tulin": 8390,
      "##ic": 8391,
      "paikallaan": 8392,
      "jossakin": 8393,
      "vall": 8394,
      "isom": 8395,
      "##esa": 8396,
      "kehon": 8397,
      "rakentaminen": 8398,
      "##ineita": 8399,
      "##osoitta": 8400,
      "tunnus": 8401,
      "ilmenee": 8402,
      "##tteri": 8403,
      "osaltaan": 8404,
      "suomelle": 8405,
      "##lojen": 8406,
      "monimut": 8407,
      "selvisi": 8408,
      "veronmaksa": 8409,
      "##enin": 8410,
      "lukuisia": 8411,
      "useampi": 8412,
      "bra": 8413,
      "##pitel": 8414,
      "jyrki": 8415,
      "jaetaan": 8416,
      "##ilusta": 8417,
      "tulevaisuus": 8418,
      "##misti": 8419,
      "elamani": 8420,
      "amerikan": 8421,
      "omistaa": 8422,
      "lunta": 8423,
      "valmiita": 8424,
      "prosess": 8425,
      "rahoitta": 8426,
      "verk": 8427,
      "##mite": 8428,
      "##hot": 8429,
      "##varti": 8430,
      "avun": 8431,
      "julkaistaan": 8432,
      "mainitse": 8433,
      "##dilla": 8434,
      "##mann": 8435,
      "##koulut": 8436,
      "omalle": 8437,
      "##deksi": 8438,
      "##illeni": 8439,
      "puolivalissa": 8440,
      "##jut": 8441,
      "##mella": 8442,
      "markkinointi": 8443,
      "##car": 8444,
      "muis": 8445,
      "lukien": 8446,
      "autot": 8447,
      "##tolle": 8448,
      "kokouksen": 8449,
      "palkki": 8450,
      "lopputulo": 8451,
      "47": 8452,
      "##ettujen": 8453,
      "kuk": 8454,
      "##istot": 8455,
      "kotia": 8456,
      "apulais": 8457,
      "rasva": 8458,
      "miettinyt": 8459,
      "poliittinen": 8460,
      "kaiva": 8461,
      "aloittanut": 8462,
      "kokee": 8463,
      "tauko": 8464,
      "paao": 8465,
      "veroja": 8466,
      "##ointiin": 8467,
      "##yhtioiden": 8468,
      "ump": 8469,
      "vayr": 8470,
      "##kkeita": 8471,
      "##kg": 8472,
      "##uskon": 8473,
      "porukkaa": 8474,
      "paljasta": 8475,
      "1980": 8476,
      "kustannukset": 8477,
      "naisille": 8478,
      "kysymyksiin": 8479,
      "tuotteiden": 8480,
      "ilmaista": 8481,
      "pidettiin": 8482,
      "mielenterveys": 8483,
      "kuvassa": 8484,
      "kadet": 8485,
      "pihalla": 8486,
      "120": 8487,
      "myonsi": 8488,
      "teo": 8489,
      "##toman": 8490,
      "aikuisten": 8491,
      "sailyttaa": 8492,
      "##ytetty": 8493,
      "naimisiin": 8494,
      "oikeaan": 8495,
      "##etuista": 8496,
      "naapuri": 8497,
      "huonon": 8498,
      "pyyh": 8499,
      "##itoja": 8500,
      "yksikaan": 8501,
      "harrastaa": 8502,
      "rikki": 8503,
      "konta": 8504,
      "ork": 8505,
      "harri": 8506,
      "paasia": 8507,
      "kavereita": 8508,
      "huonoa": 8509,
      "pitkalti": 8510,
      "tarkistaa": 8511,
      "sairaalassa": 8512,
      "odotan": 8513,
      "jako": 8514,
      "hullu": 8515,
      "korvat": 8516,
      "##maailman": 8517,
      "profi": 8518,
      "nyrk": 8519,
      "##ityo": 8520,
      "ensinna": 8521,
      "kaipa": 8522,
      "kyyn": 8523,
      "jaakko": 8524,
      "hiv": 8525,
      "##sodan": 8526,
      "##puhelin": 8527,
      "uran": 8528,
      "95": 8529,
      "keta": 8530,
      "julkaise": 8531,
      "yleisurhe": 8532,
      "lastensuojel": 8533,
      "suht": 8534,
      "televisio": 8535,
      "vuotiaiden": 8536,
      "loistava": 8537,
      "mielestasi": 8538,
      "pitkia": 8539,
      "##oltaan": 8540,
      "lann": 8541,
      "##opal": 8542,
      "halla": 8543,
      "inhim": 8544,
      "karsii": 8545,
      "ymmarta": 8546,
      "##paper": 8547,
      "##itsen": 8548,
      "varsinainen": 8549,
      "bb": 8550,
      "##kilpailun": 8551,
      "##istoja": 8552,
      "palveluja": 8553,
      "aito": 8554,
      "##uor": 8555,
      "##umb": 8556,
      "sanomat": 8557,
      "ennus": 8558,
      "kauka": 8559,
      "ilmainen": 8560,
      "##hdat": 8561,
      "tilin": 8562,
      "kontr": 8563,
      "##hdus": 8564,
      "tapana": 8565,
      "laulu": 8566,
      "esitetaan": 8567,
      "kasitys": 8568,
      "pesa": 8569,
      "seudun": 8570,
      "koskevan": 8571,
      "edisty": 8572,
      "virheita": 8573,
      "mainita": 8574,
      "vastuussa": 8575,
      "##uvien": 8576,
      "##pista": 8577,
      "##tyminen": 8578,
      "chi": 8579,
      "merkkeja": 8580,
      "nautin": 8581,
      "##kr": 8582,
      "kasvattaa": 8583,
      "vaate": 8584,
      "##kalle": 8585,
      "sairaalaan": 8586,
      "##histo": 8587,
      "peliin": 8588,
      "puolustaja": 8589,
      "jatkuvat": 8590,
      "##vanh": 8591,
      "vanhanen": 8592,
      "##ettavia": 8593,
      "runo": 8594,
      "ystavani": 8595,
      "##sista": 8596,
      "juoksi": 8597,
      "david": 8598,
      "oltu": 8599,
      "matkustaja": 8600,
      "pohjanmaan": 8601,
      "pasi": 8602,
      "heitta": 8603,
      "kirjoja": 8604,
      "krite": 8605,
      "##anna": 8606,
      "##johd": 8607,
      "##ystava": 8608,
      "##kaar": 8609,
      "##tiete": 8610,
      "mestari": 8611,
      "pahoinpitel": 8612,
      "kaverin": 8613,
      "##iaamuna": 8614,
      "sipila": 8615,
      "##lehden": 8616,
      "painoa": 8617,
      "rakkauden": 8618,
      "fr": 8619,
      "kirko": 8620,
      "##ved": 8621,
      "millaisia": 8622,
      "##mall": 8623,
      "perse": 8624,
      "##viikon": 8625,
      "kulku": 8626,
      "joukot": 8627,
      "pelko": 8628,
      "pelaajia": 8629,
      "kumman": 8630,
      "##lehtia": 8631,
      "vanhen": 8632,
      "##ikkeiden": 8633,
      "savo": 8634,
      "##emiseen": 8635,
      "##hdasta": 8636,
      "esko": 8637,
      "##ei": 8638,
      "kommentteja": 8639,
      "mielenosoitta": 8640,
      "kerroin": 8641,
      "##keksi": 8642,
      "poliisille": 8643,
      "miljoonaan": 8644,
      "ponn": 8645,
      "myrsky": 8646,
      "molempien": 8647,
      "##kautta": 8648,
      "dna": 8649,
      "puolin": 8650,
      "ajanut": 8651,
      "putosi": 8652,
      "loytyvat": 8653,
      "palvelua": 8654,
      "htm": 8655,
      "tuotteen": 8656,
      "luulet": 8657,
      "ostos": 8658,
      "sivisty": 8659,
      "tiedetaan": 8660,
      "ander": 8661,
      "##tekija": 8662,
      "luulisi": 8663,
      "maito": 8664,
      "##opetta": 8665,
      "taivaan": 8666,
      "osata": 8667,
      "250": 8668,
      "karsim": 8669,
      "meina": 8670,
      "meks": 8671,
      "##kisa": 8672,
      "##meksi": 8673,
      "puhui": 8674,
      "##stin": 8675,
      "plus": 8676,
      "yksimiel": 8677,
      "kuulunut": 8678,
      "ihmettelen": 8679,
      "elokuun": 8680,
      "##itas": 8681,
      "oikeudenmuka": 8682,
      "pinn": 8683,
      "kangas": 8684,
      "joutua": 8685,
      "linn": 8686,
      "vahitellen": 8687,
      "menettaa": 8688,
      "erilaista": 8689,
      "##immasta": 8690,
      "politiikan": 8691,
      "keskusteluun": 8692,
      "##ennus": 8693,
      "marko": 8694,
      "oikealla": 8695,
      "syopa": 8696,
      "##uudelle": 8697,
      "kolmi": 8698,
      "varmaa": 8699,
      "osassa": 8700,
      "kritis": 8701,
      "##emmiston": 8702,
      "##retaan": 8703,
      "herattaa": 8704,
      "maailmanlaaju": 8705,
      "##itelty": 8706,
      "savy": 8707,
      "yrityksia": 8708,
      "mobi": 8709,
      "tekijat": 8710,
      "oireet": 8711,
      "todettiin": 8712,
      "tunteet": 8713,
      "autoon": 8714,
      "sein": 8715,
      "eero": 8716,
      "salo": 8717,
      "uudista": 8718,
      "saavutta": 8719,
      "##puolinen": 8720,
      "kolle": 8721,
      "##ast": 8722,
      "kipea": 8723,
      "laitoksen": 8724,
      "tarvitsisi": 8725,
      "aanestaa": 8726,
      "##teke": 8727,
      "esimi": 8728,
      "uskotta": 8729,
      "saavuttaa": 8730,
      "tammi": 8731,
      "aion": 8732,
      "ainutlaatu": 8733,
      "##keet": 8734,
      "ey": 8735,
      "numero": 8736,
      "##ure": 8737,
      "elavat": 8738,
      "##kkaiden": 8739,
      "hyodyntaa": 8740,
      "##ssiiv": 8741,
      "kahdesti": 8742,
      "##oitiin": 8743,
      "vaitos": 8744,
      "jattanyt": 8745,
      "sosialis": 8746,
      "vesa": 8747,
      "##kii": 8748,
      "kunnian": 8749,
      "aku": 8750,
      "valitaan": 8751,
      "gp": 8752,
      "analys": 8753,
      "biolog": 8754,
      "kirje": 8755,
      "meika": 8756,
      "mahdolliset": 8757,
      "dis": 8758,
      "##toimen": 8759,
      "poltta": 8760,
      "##chin": 8761,
      "##musten": 8762,
      "pituus": 8763,
      "kaksinkerta": 8764,
      "prote": 8765,
      "paatte": 8766,
      "##oistaan": 8767,
      "noiden": 8768,
      "##hoitaja": 8769,
      "aikoja": 8770,
      "##iinin": 8771,
      "tutkii": 8772,
      "sali": 8773,
      "##levy": 8774,
      "komissio": 8775,
      "saannot": 8776,
      "raskaana": 8777,
      "##ssan": 8778,
      "##isikin": 8779,
      "laatua": 8780,
      "##syn": 8781,
      "reilut": 8782,
      "omilla": 8783,
      "lakko": 8784,
      "vaikutuksia": 8785,
      "kokea": 8786,
      "suuntaa": 8787,
      "muutoksen": 8788,
      "samanlaisia": 8789,
      "##tajana": 8790,
      "menemaan": 8791,
      "kierto": 8792,
      "ruos": 8793,
      "kisoihin": 8794,
      "him": 8795,
      "##tiksi": 8796,
      "ratkaista": 8797,
      "mais": 8798,
      "##paikalla": 8799,
      "##nne": 8800,
      "elainten": 8801,
      "ruuan": 8802,
      "vienti": 8803,
      "##erien": 8804,
      "##yttavan": 8805,
      "##ikop": 8806,
      "##hous": 8807,
      "senttia": 8808,
      "##ior": 8809,
      "##lub": 8810,
      "tapahtun": 8811,
      "halus": 8812,
      "haneen": 8813,
      "sovittu": 8814,
      "bran": 8815,
      "jarjestely": 8816,
      "kid": 8817,
      "tanskan": 8818,
      "wiki": 8819,
      "oulussa": 8820,
      "suut": 8821,
      "vapautta": 8822,
      "katker": 8823,
      "julkaista": 8824,
      "rakastan": 8825,
      "##kaisi": 8826,
      "washing": 8827,
      "turnauksen": 8828,
      "tarjous": 8829,
      "tasma": 8830,
      "##niassa": 8831,
      "fun": 8832,
      "del": 8833,
      "jani": 8834,
      "piller": 8835,
      "jarjestelman": 8836,
      "tuotannon": 8837,
      "kentalla": 8838,
      "##etusta": 8839,
      "kovinkaan": 8840,
      "yhteisen": 8841,
      "isoa": 8842,
      "vuosisa": 8843,
      "jorma": 8844,
      "##tojarjestel": 8845,
      "hank": 8846,
      "muutto": 8847,
      "maailmancup": 8848,
      "##laps": 8849,
      "##yttavat": 8850,
      "huippukoko": 8851,
      "miehella": 8852,
      "##jarjeston": 8853,
      "##bal": 8854,
      "aleksan": 8855,
      "bakte": 8856,
      "kaanta": 8857,
      "asemaa": 8858,
      "##maissa": 8859,
      "loppup": 8860,
      "ottamatta": 8861,
      "aloitus": 8862,
      "##issu": 8863,
      "##tyypp": 8864,
      "kasvun": 8865,
      "liber": 8866,
      "##roita": 8867,
      "puhunut": 8868,
      "omina": 8869,
      "tieteen": 8870,
      "vahvisti": 8871,
      "##rata": 8872,
      "##laaks": 8873,
      "maailmalla": 8874,
      "plussa": 8875,
      "##itusta": 8876,
      "yksinkertainen": 8877,
      "taut": 8878,
      "aikaisin": 8879,
      "helpompaa": 8880,
      "##punut": 8881,
      "saastaa": 8882,
      "54": 8883,
      "asukkaat": 8884,
      "##voitto": 8885,
      "tapahtumat": 8886,
      "##heen": 8887,
      "vetoa": 8888,
      "aikaiseksi": 8889,
      "##uas": 8890,
      "artikkel": 8891,
      "cupin": 8892,
      "korea": 8893,
      "lta": 8894,
      "##puolelle": 8895,
      "viimein": 8896,
      "pyrk": 8897,
      "muulla": 8898,
      "##yttya": 8899,
      "ruumi": 8900,
      "puit": 8901,
      "mukavasti": 8902,
      "##uke": 8903,
      "tutta": 8904,
      "hiekka": 8905,
      "huomauttaa": 8906,
      "hyvana": 8907,
      "pakista": 8908,
      "kertomaan": 8909,
      "##ood": 8910,
      "mtv": 8911,
      "onkohan": 8912,
      "##fia": 8913,
      "maista": 8914,
      "##mpy": 8915,
      "##jiksi": 8916,
      "##paatos": 8917,
      "kenella": 8918,
      "avata": 8919,
      "tekijan": 8920,
      "dies": 8921,
      "vajaat": 8922,
      "suosikki": 8923,
      "pentu": 8924,
      "sote": 8925,
      "hairi": 8926,
      "peter": 8927,
      "puhumatta": 8928,
      "##ittelevat": 8929,
      "luet": 8930,
      "mac": 8931,
      "##teelle": 8932,
      "tunnelma": 8933,
      "hammen": 8934,
      "kulj": 8935,
      "toimivan": 8936,
      "koirat": 8937,
      "asiakkaat": 8938,
      "valinnan": 8939,
      "lukemaan": 8940,
      "huomata": 8941,
      "lainsaad": 8942,
      "opiskelijat": 8943,
      "##pankin": 8944,
      "metr": 8945,
      "##osasto": 8946,
      "etuja": 8947,
      "poliisit": 8948,
      "kotimaa": 8949,
      "kulttuurin": 8950,
      "99": 8951,
      "facebook": 8952,
      "##kkaus": 8953,
      "polku": 8954,
      "yhteistyon": 8955,
      "vakea": 8956,
      "vaihe": 8957,
      "casino": 8958,
      "##ppe": 8959,
      "tiedottaja": 8960,
      "##tisesti": 8961,
      "lehdessa": 8962,
      "asiakkaiden": 8963,
      "##tusa": 8964,
      "twitter": 8965,
      "##suun": 8966,
      "##kunnalla": 8967,
      "85": 8968,
      "suorana": 8969,
      "##ham": 8970,
      "menisi": 8971,
      "michael": 8972,
      "##anaanesty": 8973,
      "##hoid": 8974,
      "##elemaan": 8975,
      "menen": 8976,
      "youtu": 8977,
      "##ytyksen": 8978,
      "##pankki": 8979,
      "##vaihd": 8980,
      "kuljetus": 8981,
      "tilaisuudessa": 8982,
      "edun": 8983,
      "##ottavat": 8984,
      "tuonut": 8985,
      "hotellin": 8986,
      "katsomassa": 8987,
      "##hdista": 8988,
      "avioliit": 8989,
      "##hm": 8990,
      "##ikkeet": 8991,
      "tarvitsevat": 8992,
      "nalka": 8993,
      "masenn": 8994,
      "psyy": 8995,
      "palkansaa": 8996,
      "skan": 8997,
      "julista": 8998,
      "##piiri": 8999,
      "tyoskenn": 9000,
[...]
